#ifdef __has_attribute
#define HAVE_ATTRIBUTE(x) __has_attribute(x)
#else
#define HAVE_ATTRIBUTE(x) 0
#endif
#if HAVE_ATTRIBUTE(aligned) || (defined(__GNUC__) && !defined(__clang__))
#define DATA_ALIGN_ATTRIBUTE __attribute__((aligned(4)))
#else
#define DATA_ALIGN_ATTRIBUTE
#endif
    
const unsigned char Primeiro_int8[]  DATA_ALIGN_ATTRIBUTE = {
 0x20, 0x00, 0x00, 0x00, 0x54, 0x46, 0x4c, 0x33, 0x00, 0x00, 0x00, 0x00,
  0x14, 0x00, 0x20, 0x00, 0x1c, 0x00, 0x18, 0x00, 0x14, 0x00, 0x10, 0x00,
  0x0c, 0x00, 0x00, 0x00, 0x08, 0x00, 0x04, 0x00, 0x14, 0x00, 0x00, 0x00,
  0x1c, 0x00, 0x00, 0x00, 0x8c, 0x00, 0x00, 0x00, 0x0c, 0x01, 0x00, 0x00,
  0x34, 0x06, 0x00, 0x00, 0x44, 0x06, 0x00, 0x00, 0x74, 0x0c, 0x00, 0x00,
  0x03, 0x00, 0x00, 0x00, 0x01, 0x00, 0x00, 0x00, 0x04, 0x00, 0x00, 0x00,
  0x7a, 0xf9, 0xff, 0xff, 0x0c, 0x00, 0x00, 0x00, 0x1c, 0x00, 0x00, 0x00,
  0x3c, 0x00, 0x00, 0x00, 0x0f, 0x00, 0x00, 0x00, 0x73, 0x65, 0x72, 0x76,
  0x69, 0x6e, 0x67, 0x5f, 0x64, 0x65, 0x66, 0x61, 0x75, 0x6c, 0x74, 0x00,
  0x01, 0x00, 0x00, 0x00, 0x04, 0x00, 0x00, 0x00, 0x68, 0xff, 0xff, 0xff,
  0x08, 0x00, 0x00, 0x00, 0x04, 0x00, 0x00, 0x00, 0x08, 0x00, 0x00, 0x00,
  0x6f, 0x75, 0x74, 0x70, 0x75, 0x74, 0x5f, 0x30, 0x00, 0x00, 0x00, 0x00,
  0x01, 0x00, 0x00, 0x00, 0x04, 0x00, 0x00, 0x00, 0x5e, 0xfa, 0xff, 0xff,
  0x04, 0x00, 0x00, 0x00, 0x0e, 0x00, 0x00, 0x00, 0x6b, 0x65, 0x72, 0x61,
  0x73, 0x5f, 0x74, 0x65, 0x6e, 0x73, 0x6f, 0x72, 0x5f, 0x34, 0x00, 0x00,
  0x03, 0x00, 0x00, 0x00, 0x5c, 0x00, 0x00, 0x00, 0x2c, 0x00, 0x00, 0x00,
  0x04, 0x00, 0x00, 0x00, 0xb8, 0xff, 0xff, 0xff, 0x0c, 0x00, 0x00, 0x00,
  0x04, 0x00, 0x00, 0x00, 0x13, 0x00, 0x00, 0x00, 0x43, 0x4f, 0x4e, 0x56,
  0x45, 0x52, 0x53, 0x49, 0x4f, 0x4e, 0x5f, 0x4d, 0x45, 0x54, 0x41, 0x44,
  0x41, 0x54, 0x41, 0x00, 0xdc, 0xff, 0xff, 0xff, 0x0b, 0x00, 0x00, 0x00,
  0x04, 0x00, 0x00, 0x00, 0x13, 0x00, 0x00, 0x00, 0x6d, 0x69, 0x6e, 0x5f,
  0x72, 0x75, 0x6e, 0x74, 0x69, 0x6d, 0x65, 0x5f, 0x76, 0x65, 0x72, 0x73,
  0x69, 0x6f, 0x6e, 0x00, 0x08, 0x00, 0x0c, 0x00, 0x08, 0x00, 0x04, 0x00,
  0x08, 0x00, 0x00, 0x00, 0x0a, 0x00, 0x00, 0x00, 0x04, 0x00, 0x00, 0x00,
  0x13, 0x00, 0x00, 0x00, 0x6d, 0x69, 0x6e, 0x5f, 0x72, 0x75, 0x6e, 0x74,
  0x69, 0x6d, 0x65, 0x5f, 0x76, 0x65, 0x72, 0x73, 0x69, 0x6f, 0x6e, 0x00,
  0x0d, 0x00, 0x00, 0x00, 0x24, 0x05, 0x00, 0x00, 0x1c, 0x05, 0x00, 0x00,
  0xfc, 0x04, 0x00, 0x00, 0xe4, 0x02, 0x00, 0x00, 0xd4, 0x00, 0x00, 0x00,
  0xcc, 0x00, 0x00, 0x00, 0xc4, 0x00, 0x00, 0x00, 0xbc, 0x00, 0x00, 0x00,
  0xb4, 0x00, 0x00, 0x00, 0xac, 0x00, 0x00, 0x00, 0x8c, 0x00, 0x00, 0x00,
  0x6c, 0x00, 0x00, 0x00, 0x04, 0x00, 0x00, 0x00, 0x36, 0xfb, 0xff, 0xff,
  0x04, 0x00, 0x00, 0x00, 0x58, 0x00, 0x00, 0x00, 0x0c, 0x00, 0x00, 0x00,
  0x08, 0x00, 0x0e, 0x00, 0x08, 0x00, 0x04, 0x00, 0x08, 0x00, 0x00, 0x00,
  0x10, 0x00, 0x00, 0x00, 0x28, 0x00, 0x00, 0x00, 0x00, 0x00, 0x06, 0x00,
  0x08, 0x00, 0x04, 0x00, 0x06, 0x00, 0x00, 0x00, 0x04, 0x00, 0x00, 0x00,
  0x01, 0x00, 0x00, 0x00, 0xeb, 0x03, 0x00, 0x00, 0x00, 0x00, 0x0a, 0x00,
  0x10, 0x00, 0x0c, 0x00, 0x08, 0x00, 0x04, 0x00, 0x0a, 0x00, 0x00, 0x00,
  0x01, 0x00, 0x00, 0x00, 0x02, 0x00, 0x00, 0x00, 0x04, 0x00, 0x00, 0x00,
  0x06, 0x00, 0x00, 0x00, 0x32, 0x2e, 0x31, 0x36, 0x2e, 0x31, 0x00, 0x00,
  0x9a, 0xfb, 0xff, 0xff, 0x04, 0x00, 0x00, 0x00, 0x10, 0x00, 0x00, 0x00,
  0x00, 0x00, 0x00, 0x00, 0x00, 0x00, 0x00, 0x00, 0x00, 0x00, 0x00, 0x00,
  0x00, 0x00, 0x00, 0x00, 0xb6, 0xfb, 0xff, 0xff, 0x04, 0x00, 0x00, 0x00,
  0x10, 0x00, 0x00, 0x00, 0x31, 0x2e, 0x31, 0x34, 0x2e, 0x30, 0x00, 0x00,
  0x00, 0x00, 0x00, 0x00, 0x00, 0x00, 0x00, 0x00, 0x9c, 0xf5, 0xff, 0xff,
  0xa0, 0xf5, 0xff, 0xff, 0xa4, 0xf5, 0xff, 0xff, 0xa8, 0xf5, 0xff, 0xff,
  0xac, 0xf5, 0xff, 0xff, 0xe6, 0xfb, 0xff, 0xff, 0x04, 0x00, 0x00, 0x00,
  0x00, 0x02, 0x00, 0x00, 0x10, 0x68, 0x71, 0x6a, 0x7c, 0x11, 0x5c, 0xbf,
  0xbf, 0xdf, 0xfd, 0xda, 0xed, 0x27, 0x49, 0xda, 0xd6, 0x95, 0x84, 0x73,
  0x89, 0x54, 0x20, 0x5d, 0x7c, 0x89, 0x79, 0xb2, 0x08, 0x82, 0x95, 0xa8,
  0xea, 0x62, 0xa7, 0xee, 0x18, 0xed, 0xf5, 0x93, 0x09, 0xb4, 0x09, 0x40,
  0x72, 0xc0, 0x0a, 0xb4, 0xb5, 0xef, 0x38, 0xf3, 0x87, 0x8f, 0x1e, 0x3d,
  0x3b, 0x6b, 0x08, 0x45, 0xb7, 0xac, 0xa4, 0x93, 0x8e, 0x73, 0x9f, 0xf4,
  0x5f, 0x78, 0xbd, 0x0a, 0xfa, 0x9f, 0x05, 0x04, 0xa5, 0xfb, 0xd2, 0x8f,
  0x5b, 0x6a, 0x87, 0x96, 0x95, 0xdf, 0xf4, 0x48, 0x24, 0x89, 0x30, 0x05,
  0xe7, 0xf6, 0x79, 0xe5, 0xc5, 0x45, 0xd9, 0xd0, 0x0e, 0xd0, 0xa8, 0xaf,
  0x33, 0x1f, 0x78, 0xea, 0xd9, 0xc9, 0x30, 0x6a, 0xfa, 0x45, 0x05, 0x39,
  0x52, 0x95, 0x58, 0xe0, 0x0b, 0x12, 0x97, 0x99, 0x44, 0xb2, 0x63, 0xd3,
  0x0a, 0x17, 0xe3, 0x53, 0xbc, 0x33, 0x12, 0x1b, 0xb4, 0xa1, 0xab, 0x1d,
  0x58, 0x8e, 0xbc, 0x89, 0x49, 0x98, 0x2a, 0x6c, 0x77, 0x7e, 0xeb, 0xe4,
  0x48, 0x82, 0x7b, 0x3a, 0x6c, 0xd3, 0xb0, 0xc7, 0xb9, 0x03, 0xe4, 0x3d,
  0x91, 0x3e, 0xcf, 0x3d, 0x0c, 0x84, 0x4b, 0x15, 0xd0, 0xfc, 0x8f, 0x29,
  0x89, 0xd7, 0xf6, 0xec, 0xff, 0xb2, 0x53, 0x96, 0x00, 0x9f, 0x48, 0x21,
  0xc2, 0x52, 0x68, 0x6c, 0xee, 0xd7, 0x03, 0xdb, 0xd6, 0x49, 0x9c, 0x5c,
  0x29, 0xb4, 0x12, 0xdb, 0x90, 0x28, 0x14, 0x25, 0x3d, 0x6f, 0x16, 0x20,
  0xb2, 0xc9, 0x32, 0xde, 0x68, 0xa6, 0xe7, 0x44, 0x5a, 0x56, 0x87, 0xbe,
  0x75, 0x84, 0xef, 0xa7, 0x22, 0x6f, 0x22, 0xc1, 0xca, 0x96, 0x1c, 0x33,
  0x78, 0x85, 0x9f, 0xf3, 0x6c, 0x9d, 0xc4, 0xd3, 0x41, 0x9d, 0x43, 0x63,
  0x27, 0x2e, 0xba, 0xcf, 0x07, 0x72, 0xe6, 0x97, 0x13, 0x7f, 0x34, 0xc7,
  0x3b, 0x52, 0xca, 0xec, 0x8c, 0x51, 0x05, 0xff, 0x41, 0x4a, 0x64, 0xfc,
  0x54, 0xd8, 0xc6, 0x8a, 0xde, 0x25, 0x71, 0xc5, 0x40, 0xb1, 0x7b, 0xe4,
  0x8e, 0xc7, 0x9f, 0x55, 0x61, 0xbb, 0x37, 0x3f, 0x57, 0xb9, 0x7a, 0xcd,
  0x55, 0x1e, 0x1d, 0x09, 0x22, 0x7b, 0x63, 0xc2, 0xbb, 0x04, 0x40, 0xa2,
  0x35, 0xdb, 0x5a, 0x38, 0xe0, 0x64, 0x60, 0x0a, 0x41, 0xb5, 0x3c, 0x97,
  0x7d, 0x38, 0x13, 0x13, 0xd5, 0xb6, 0xce, 0x29, 0x0a, 0xaf, 0x08, 0x89,
  0x7f, 0xfc, 0xe4, 0x82, 0x4d, 0xfa, 0x54, 0x74, 0x48, 0xe1, 0x83, 0x0f,
  0xc7, 0x53, 0x7d, 0xe3, 0x2b, 0x4d, 0xef, 0xa3, 0x3d, 0x3f, 0xb3, 0x86,
  0xab, 0x12, 0xb2, 0xe3, 0x99, 0xc5, 0x87, 0xa3, 0x20, 0xaa, 0x76, 0xa0,
  0x3f, 0x76, 0x5c, 0x63, 0xbc, 0x50, 0x02, 0xf7, 0x40, 0xc1, 0x1d, 0x2b,
  0x1e, 0x9d, 0xd6, 0x24, 0x60, 0x90, 0xc8, 0x82, 0x14, 0x00, 0x23, 0xfa,
  0x46, 0xf8, 0x56, 0x60, 0x47, 0x42, 0x33, 0x45, 0x0e, 0xc9, 0x20, 0x19,
  0xbc, 0x12, 0xb7, 0x8e, 0x9e, 0x04, 0xc1, 0xc8, 0xa7, 0x4b, 0x2a, 0xf0,
  0x47, 0x77, 0xc2, 0x11, 0x05, 0x22, 0x2b, 0xa9, 0x9c, 0x4b, 0x42, 0xfd,
  0x36, 0xab, 0xac, 0x5c, 0xc5, 0x2a, 0x9e, 0x57, 0x13, 0x89, 0xe9, 0x30,
  0xa4, 0x71, 0x0f, 0x94, 0xc6, 0x76, 0xaf, 0x46, 0x4a, 0x91, 0x8a, 0xe9,
  0x41, 0xc1, 0x90, 0xa2, 0xe9, 0xc6, 0x6b, 0x1a, 0x15, 0xfd, 0xb0, 0x54,
  0xd7, 0xdb, 0x73, 0xd0, 0x47, 0x9c, 0xdb, 0xc2, 0xc7, 0x74, 0xb9, 0xbf,
  0xc8, 0x6e, 0x3f, 0xdd, 0xc7, 0x09, 0xfe, 0x89, 0x96, 0x38, 0xfd, 0x21,
  0x3c, 0x13, 0x23, 0xb3, 0x0c, 0xf1, 0xa2, 0xf5, 0x41, 0x3e, 0x94, 0xea,
  0xfe, 0x98, 0xfe, 0xf0, 0x4e, 0xaa, 0x84, 0xa2, 0xe7, 0x6a, 0x7b, 0x64,
  0xf2, 0xfd, 0xff, 0xff, 0x04, 0x00, 0x00, 0x00, 0x00, 0x02, 0x00, 0x00,
  0x68, 0xb4, 0x12, 0x5a, 0x19, 0x8d, 0x9a, 0x51, 0xc1, 0x61, 0x73, 0xc3,
  0x8e, 0xb7, 0x36, 0xf6, 0x01, 0xc9, 0xb4, 0xa5, 0xaf, 0x66, 0x8d, 0xb0,
  0x24, 0x3f, 0x2c, 0x1c, 0xb7, 0x3a, 0x86, 0xc4, 0xc1, 0x52, 0xe4, 0xff,
  0x33, 0x4d, 0xfa, 0xca, 0x5c, 0xa7, 0xad, 0xf1, 0xcd, 0x69, 0xb2, 0x33,
  0xdd, 0x7b, 0xbf, 0xc8, 0xcc, 0x0a, 0x91, 0xce, 0x74, 0xef, 0x0e, 0x4c,
  0x4e, 0x7b, 0x9c, 0x8b, 0xdd, 0x6e, 0xa9, 0x5f, 0x06, 0x79, 0x8c, 0xd8,
  0xcc, 0xc0, 0x8a, 0x67, 0x4a, 0x4b, 0x76, 0x92, 0xe4, 0xe8, 0x86, 0x79,
  0x36, 0x71, 0x36, 0x86, 0x7b, 0xa1, 0x65, 0xf9, 0x8d, 0x72, 0xc3, 0xf2,
  0xe3, 0x7b, 0xd2, 0xf1, 0x8a, 0x18, 0xc1, 0xad, 0x4b, 0x4e, 0xb2, 0x41,
  0xdc, 0xbe, 0xca, 0x01, 0x9b, 0xce, 0xae, 0x9f, 0xda, 0x07, 0xf5, 0x22,
  0x99, 0x14, 0x65, 0x23, 0xf6, 0x5e, 0x66, 0xcb, 0x6e, 0x01, 0xbf, 0xfa,
  0xb2, 0x36, 0x18, 0xad, 0x9a, 0x0c, 0xfb, 0x37, 0x94, 0x78, 0x8f, 0x5f,
  0x06, 0x2d, 0xf1, 0x06, 0xfd, 0xd8, 0xa2, 0x4c, 0x34, 0x92, 0x75, 0x04,
  0x46, 0xdf, 0x25, 0xe8, 0x2f, 0x1f, 0x92, 0xe4, 0xb6, 0x34, 0x79, 0x68,
  0x6f, 0x69, 0x34, 0x6b, 0x99, 0x6e, 0x9f, 0x4d, 0x71, 0xf7, 0xc3, 0xa8,
  0xc7, 0x77, 0xa4, 0xb5, 0xe8, 0xd0, 0x15, 0x64, 0xc7, 0x7d, 0x31, 0x51,
  0xad, 0xdf, 0x5c, 0x1e, 0x97, 0xf6, 0x34, 0xdb, 0xc3, 0x99, 0x27, 0xeb,
  0xaf, 0xfa, 0xe8, 0xb2, 0xcf, 0x69, 0xaf, 0xe1, 0x5b, 0x53, 0x9a, 0xcb,
  0x2a, 0xe3, 0xd9, 0x09, 0x1c, 0xc0, 0xe9, 0xd2, 0x95, 0x60, 0x4e, 0x5c,
  0xe0, 0xfa, 0x45, 0xbe, 0xf2, 0x89, 0x9c, 0x49, 0x3e, 0x52, 0xa3, 0xa1,
  0xfa, 0x50, 0x68, 0x83, 0x48, 0x85, 0x6e, 0x51, 0xc7, 0xd9, 0xdf, 0xfc,
  0xb9, 0x28, 0x0e, 0x12, 0x36, 0x9f, 0x1f, 0xc5, 0x99, 0x26, 0xe6, 0x8b,
  0x90, 0x44, 0xac, 0xe6, 0x30, 0x54, 0x66, 0x0f, 0x7c, 0x9c, 0x5d, 0xe7,
  0x8b, 0x3a, 0x7a, 0x21, 0x13, 0x00, 0xf1, 0xb8, 0xd8, 0x1e, 0xd9, 0xcb,
  0x98, 0xd1, 0x8a, 0xa1, 0xea, 0x7c, 0x11, 0x47, 0xae, 0xd2, 0x46, 0x10,
  0xbd, 0xe4, 0xcd, 0x8e, 0x4b, 0x5e, 0x63, 0x09, 0x5a, 0xb9, 0xaa, 0xec,
  0x34, 0x86, 0xcc, 0x33, 0xcc, 0x60, 0x8b, 0x86, 0x71, 0x25, 0x6b, 0x67,
  0x9d, 0x6c, 0x33, 0xdb, 0xf1, 0xa5, 0xd3, 0xe6, 0x65, 0x08, 0xe2, 0x32,
  0xef, 0xa7, 0x3c, 0xf5, 0xb4, 0x3a, 0x2c, 0x25, 0xf0, 0xf8, 0x0f, 0x93,
  0x93, 0x59, 0x55, 0x52, 0x32, 0xe6, 0x45, 0x92, 0x73, 0x71, 0xae, 0x84,
  0xd6, 0x02, 0x40, 0x4e, 0x35, 0x78, 0x62, 0x54, 0xfb, 0x92, 0x0c, 0xc5,
  0x37, 0xe5, 0x75, 0x07, 0xfd, 0xd1, 0x78, 0xf9, 0x33, 0x22, 0x61, 0xea,
  0x61, 0x67, 0x70, 0xe9, 0x33, 0x44, 0x3d, 0x92, 0x6c, 0x37, 0x94, 0x33,
  0xed, 0xfe, 0x54, 0x6c, 0x9f, 0x24, 0xad, 0x8f, 0x7c, 0x28, 0x2b, 0xac,
  0xf3, 0x43, 0x87, 0xd7, 0xd8, 0x38, 0x1f, 0xb3, 0x8c, 0xd0, 0xb9, 0xdb,
  0xf6, 0x59, 0x9e, 0xb1, 0x53, 0x31, 0x36, 0x60, 0x60, 0xb3, 0xa4, 0x47,
  0x9a, 0x8c, 0x8a, 0xe0, 0x87, 0x72, 0x19, 0xc9, 0x0f, 0x5f, 0xcb, 0xe8,
  0x5e, 0x87, 0xf8, 0x6b, 0x87, 0x20, 0xe9, 0x4a, 0xb4, 0x94, 0xc4, 0x96,
  0xd0, 0x08, 0x3a, 0x59, 0x6c, 0xf0, 0xea, 0x02, 0x3b, 0x89, 0xff, 0xe7,
  0x81, 0x42, 0xe5, 0x20, 0x36, 0xbb, 0x0e, 0xa6, 0x13, 0xaa, 0xa5, 0x5d,
  0x3f, 0x84, 0x03, 0xb4, 0xe7, 0xfa, 0xaa, 0xf2, 0xce, 0xb2, 0x5b, 0x98,
  0x31, 0x8d, 0xc9, 0x77, 0x76, 0xe3, 0x64, 0xa3, 0x65, 0x42, 0xa8, 0xf5,
  0xfd, 0x72, 0xc4, 0xe2, 0x71, 0x5a, 0xf5, 0xf8, 0x00, 0x00, 0x06, 0x00,
  0x08, 0x00, 0x04, 0x00, 0x06, 0x00, 0x00, 0x00, 0x04, 0x00, 0x00, 0x00,
  0x10, 0x00, 0x00, 0x00, 0x70, 0x4f, 0x15, 0xad, 0xb4, 0x50, 0x2e, 0x0f,
  0x29, 0x4e, 0xaf, 0x2f, 0x13, 0x7f, 0x34, 0x68, 0xec, 0xf9, 0xff, 0xff,
  0xf0, 0xf9, 0xff, 0xff, 0x0f, 0x00, 0x00, 0x00, 0x4d, 0x4c, 0x49, 0x52,
  0x20, 0x43, 0x6f, 0x6e, 0x76, 0x65, 0x72, 0x74, 0x65, 0x64, 0x2e, 0x00,
  0x01, 0x00, 0x00, 0x00, 0x14, 0x00, 0x00, 0x00, 0x00, 0x00, 0x0e, 0x00,
  0x18, 0x00, 0x14, 0x00, 0x10, 0x00, 0x0c, 0x00, 0x08, 0x00, 0x04, 0x00,
  0x0e, 0x00, 0x00, 0x00, 0x14, 0x00, 0x00, 0x00, 0x1c, 0x00, 0x00, 0x00,
  0x40, 0x01, 0x00, 0x00, 0x44, 0x01, 0x00, 0x00, 0x48, 0x01, 0x00, 0x00,
  0x04, 0x00, 0x00, 0x00, 0x6d, 0x61, 0x69, 0x6e, 0x00, 0x00, 0x00, 0x00,
  0x05, 0x00, 0x00, 0x00, 0x08, 0x01, 0x00, 0x00, 0xb8, 0x00, 0x00, 0x00,
  0x6c, 0x00, 0x00, 0x00, 0x34, 0x00, 0x00, 0x00, 0x10, 0x00, 0x00, 0x00,
  0x00, 0x00, 0x0a, 0x00, 0x10, 0x00, 0x0c, 0x00, 0x08, 0x00, 0x04, 0x00,
  0x0a, 0x00, 0x00, 0x00, 0x0c, 0x00, 0x00, 0x00, 0x10, 0x00, 0x00, 0x00,
  0x02, 0x00, 0x00, 0x00, 0x01, 0x00, 0x00, 0x00, 0x08, 0x00, 0x00, 0x00,
  0x01, 0x00, 0x00, 0x00, 0x07, 0x00, 0x00, 0x00, 0x92, 0xff, 0xff, 0xff,
  0x14, 0x00, 0x00, 0x00, 0x00, 0x00, 0x00, 0x08, 0x10, 0x00, 0x00, 0x00,
  0x14, 0x00, 0x00, 0x00, 0x01, 0x00, 0x00, 0x00, 0xa0, 0xfa, 0xff, 0xff,
  0x01, 0x00, 0x00, 0x00, 0x07, 0x00, 0x00, 0x00, 0x03, 0x00, 0x00, 0x00,
  0x06, 0x00, 0x00, 0x00, 0x01, 0x00, 0x00, 0x00, 0xff, 0xff, 0xff, 0xff,
  0xc6, 0xff, 0xff, 0xff, 0x14, 0x00, 0x00, 0x00, 0x00, 0x00, 0x00, 0x08,
  0x14, 0x00, 0x00, 0x00, 0x18, 0x00, 0x00, 0x00, 0x01, 0x00, 0x00, 0x00,
  0xb6, 0xff, 0xff, 0xff, 0x00, 0x00, 0x00, 0x01, 0x01, 0x00, 0x00, 0x00,
  0x06, 0x00, 0x00, 0x00, 0x03, 0x00, 0x00, 0x00, 0x05, 0x00, 0x00, 0x00,
  0x02, 0x00, 0x00, 0x00, 0xff, 0xff, 0xff, 0xff, 0x00, 0x00, 0x0e, 0x00,
  0x1a, 0x00, 0x14, 0x00, 0x10, 0x00, 0x0c, 0x00, 0x0b, 0x00, 0x04, 0x00,
  0x0e, 0x00, 0x00, 0x00, 0x1c, 0x00, 0x00, 0x00, 0x00, 0x00, 0x00, 0x08,
  0x1c, 0x00, 0x00, 0x00, 0x20, 0x00, 0x00, 0x00, 0x01, 0x00, 0x00, 0x00,
  0x00, 0x00, 0x06, 0x00, 0x08, 0x00, 0x07, 0x00, 0x06, 0x00, 0x00, 0x00,
  0x00, 0x00, 0x00, 0x01, 0x01, 0x00, 0x00, 0x00, 0x05, 0x00, 0x00, 0x00,
  0x03, 0x00, 0x00, 0x00, 0x04, 0x00, 0x00, 0x00, 0x03, 0x00, 0x00, 0x00,
  0xff, 0xff, 0xff, 0xff, 0x00, 0x00, 0x0a, 0x00, 0x0c, 0x00, 0x00, 0x00,
  0x08, 0x00, 0x04, 0x00, 0x0a, 0x00, 0x00, 0x00, 0x08, 0x00, 0x00, 0x00,
  0x0c, 0x00, 0x00, 0x00, 0x01, 0x00, 0x00, 0x00, 0x04, 0x00, 0x00, 0x00,
  0x01, 0x00, 0x00, 0x00, 0x00, 0x00, 0x00, 0x00, 0x01, 0x00, 0x00, 0x00,
  0x08, 0x00, 0x00, 0x00, 0x01, 0x00, 0x00, 0x00, 0x00, 0x00, 0x00, 0x00,
  0x09, 0x00, 0x00, 0x00, 0x58, 0x04, 0x00, 0x00, 0xcc, 0x03, 0x00, 0x00,
  0x4c, 0x03, 0x00, 0x00, 0xe8, 0x02, 0x00, 0x00, 0x74, 0x02, 0x00, 0x00,
  0xa0, 0x01, 0x00, 0x00, 0xe4, 0x00, 0x00, 0x00, 0x60, 0x00, 0x00, 0x00,
  0x04, 0x00, 0x00, 0x00, 0xe2, 0xfb, 0xff, 0xff, 0x00, 0x00, 0x00, 0x01,
  0x14, 0x00, 0x00, 0x00, 0x1c, 0x00, 0x00, 0x00, 0x1c, 0x00, 0x00, 0x00,
  0x09, 0x00, 0x00, 0x00, 0x34, 0x00, 0x00, 0x00, 0x02, 0x00, 0x00, 0x00,
  0xff, 0xff, 0xff, 0xff, 0x01, 0x00, 0x00, 0x00, 0xcc, 0xfb, 0xff, 0xff,
  0x1b, 0x00, 0x00, 0x00, 0x53, 0x74, 0x61, 0x74, 0x65, 0x66, 0x75, 0x6c,
  0x50, 0x61, 0x72, 0x74, 0x69, 0x74, 0x69, 0x6f, 0x6e, 0x65, 0x64, 0x43,
  0x61, 0x6c, 0x6c, 0x5f, 0x31, 0x3a, 0x30, 0x00, 0x02, 0x00, 0x00, 0x00,
  0x01, 0x00, 0x00, 0x00, 0x01, 0x00, 0x00, 0x00, 0x0e, 0xfe, 0xff, 0xff,
  0x00, 0x00, 0x00, 0x01, 0x18, 0x00, 0x00, 0x00, 0x20, 0x00, 0x00, 0x00,
  0x40, 0x00, 0x00, 0x00, 0x08, 0x00, 0x00, 0x00, 0x00, 0x00, 0x00, 0x09,
  0x58, 0x00, 0x00, 0x00, 0x02, 0x00, 0x00, 0x00, 0xff, 0xff, 0xff, 0xff,
  0x01, 0x00, 0x00, 0x00, 0xbc, 0xfc, 0xff, 0xff, 0x08, 0x00, 0x00, 0x00,
  0x14, 0x00, 0x00, 0x00, 0x01, 0x00, 0x00, 0x00, 0x83, 0xff, 0xff, 0xff,
  0xff, 0xff, 0xff, 0xff, 0x00, 0x00, 0x00, 0x00, 0x01, 0x00, 0x00, 0x00,
  0x8e, 0x7a, 0x18, 0x41, 0x1c, 0x00, 0x00, 0x00, 0x53, 0x74, 0x61, 0x74,
  0x65, 0x66, 0x75, 0x6c, 0x50, 0x61, 0x72, 0x74, 0x69, 0x74, 0x69, 0x6f,
  0x6e, 0x65, 0x64, 0x43, 0x61, 0x6c, 0x6c, 0x5f, 0x31, 0x3a, 0x30, 0x31,
  0x00, 0x00, 0x00, 0x00, 0x02, 0x00, 0x00, 0x00, 0x01, 0x00, 0x00, 0x00,
  0x01, 0x00, 0x00, 0x00, 0x8e, 0xfe, 0xff, 0xff, 0x00, 0x00, 0x00, 0x01,
  0x18, 0x00, 0x00, 0x00, 0x20, 0x00, 0x00, 0x00, 0x3c, 0x00, 0x00, 0x00,
  0x07, 0x00, 0x00, 0x00, 0x00, 0x00, 0x00, 0x09, 0x90, 0x00, 0x00, 0x00,
  0x02, 0x00, 0x00, 0x00, 0xff, 0xff, 0xff, 0xff, 0x10, 0x00, 0x00, 0x00,
  0x3c, 0xfd, 0xff, 0xff, 0x08, 0x00, 0x00, 0x00, 0x10, 0x00, 0x00, 0x00,
  0x01, 0x00, 0x00, 0x00, 0x80, 0xff, 0xff, 0xff, 0xff, 0xff, 0xff, 0xff,
  0x01, 0x00, 0x00, 0x00, 0x56, 0xfe, 0xb9, 0x41, 0x5a, 0x00, 0x00, 0x00,
  0x73, 0x65, 0x71, 0x75, 0x65, 0x6e, 0x74, 0x69, 0x61, 0x6c, 0x5f, 0x31,
  0x5f, 0x31, 0x2f, 0x64, 0x65, 0x6e, 0x73, 0x65, 0x5f, 0x34, 0x5f, 0x31,
  0x2f, 0x4d, 0x61, 0x74, 0x4d, 0x75, 0x6c, 0x3b, 0x73, 0x65, 0x71, 0x75,
  0x65, 0x6e, 0x74, 0x69, 0x61, 0x6c, 0x5f, 0x31, 0x5f, 0x31, 0x2f, 0x64,
  0x65, 0x6e, 0x73, 0x65, 0x5f, 0x34, 0x5f, 0x31, 0x2f, 0x52, 0x65, 0x6c,
  0x75, 0x3b, 0x73, 0x65, 0x71, 0x75, 0x65, 0x6e, 0x74, 0x69, 0x61, 0x6c,
  0x5f, 0x31, 0x5f, 0x31, 0x2f, 0x64, 0x65, 0x6e, 0x73, 0x65, 0x5f, 0x34,
  0x5f, 0x31, 0x2f, 0x41, 0x64, 0x64, 0x00, 0x00, 0x02, 0x00, 0x00, 0x00,
  0x01, 0x00, 0x00, 0x00, 0x10, 0x00, 0x00, 0x00, 0x46, 0xff, 0xff, 0xff,
  0x00, 0x00, 0x00, 0x01, 0x18, 0x00, 0x00, 0x00, 0x20, 0x00, 0x00, 0x00,
  0x3c, 0x00, 0x00, 0x00, 0x06, 0x00, 0x00, 0x00, 0x00, 0x00, 0x00, 0x09,
  0x90, 0x00, 0x00, 0x00, 0x02, 0x00, 0x00, 0x00, 0xff, 0xff, 0xff, 0xff,
  0x20, 0x00, 0x00, 0x00, 0xf4, 0xfd, 0xff, 0xff, 0x08, 0x00, 0x00, 0x00,
  0x10, 0x00, 0x00, 0x00, 0x01, 0x00, 0x00, 0x00, 0x80, 0xff, 0xff, 0xff,
  0xff, 0xff, 0xff, 0xff, 0x01, 0x00, 0x00, 0x00, 0x88, 0x3a, 0xf8, 0x41,
  0x5a, 0x00, 0x00, 0x00, 0x73, 0x65, 0x71, 0x75, 0x65, 0x6e, 0x74, 0x69,
  0x61, 0x6c, 0x5f, 0x31, 0x5f, 0x31, 0x2f, 0x64, 0x65, 0x6e, 0x73, 0x65,
  0x5f, 0x33, 0x5f, 0x31, 0x2f, 0x4d, 0x61, 0x74, 0x4d, 0x75, 0x6c, 0x3b,
  0x73, 0x65, 0x71, 0x75, 0x65, 0x6e, 0x74, 0x69, 0x61, 0x6c, 0x5f, 0x31,
  0x5f, 0x31, 0x2f, 0x64, 0x65, 0x6e, 0x73, 0x65, 0x5f, 0x33, 0x5f, 0x31,
  0x2f, 0x52, 0x65, 0x6c, 0x75, 0x3b, 0x73, 0x65, 0x71, 0x75, 0x65, 0x6e,
  0x74, 0x69, 0x61, 0x6c, 0x5f, 0x31, 0x5f, 0x31, 0x2f, 0x64, 0x65, 0x6e,
  0x73, 0x65, 0x5f, 0x33, 0x5f, 0x31, 0x2f, 0x41, 0x64, 0x64, 0x00, 0x00,
  0x02, 0x00, 0x00, 0x00, 0x01, 0x00, 0x00, 0x00, 0x20, 0x00, 0x00, 0x00,
  0x00, 0x00, 0x16, 0x00, 0x20, 0x00, 0x1c, 0x00, 0x1b, 0x00, 0x14, 0x00,
  0x10, 0x00, 0x0c, 0x00, 0x00, 0x00, 0x00, 0x00, 0x08, 0x00, 0x07, 0x00,
  0x16, 0x00, 0x00, 0x00, 0x00, 0x00, 0x00, 0x01, 0x18, 0x00, 0x00, 0x00,
  0x20, 0x00, 0x00, 0x00, 0x40, 0x00, 0x00, 0x00, 0x05, 0x00, 0x00, 0x00,
  0x00, 0x00, 0x00, 0x09, 0x48, 0x00, 0x00, 0x00, 0x02, 0x00, 0x00, 0x00,
  0xff, 0xff, 0xff, 0xff, 0x10, 0x00, 0x00, 0x00, 0xc4, 0xfe, 0xff, 0xff,
  0x08, 0x00, 0x00, 0x00, 0x14, 0x00, 0x00, 0x00, 0x01, 0x00, 0x00, 0x00,
  0x81, 0xff, 0xff, 0xff, 0xff, 0xff, 0xff, 0xff, 0x00, 0x00, 0x00, 0x00,
  0x01, 0x00, 0x00, 0x00, 0x40, 0xd1, 0xaa, 0x42, 0x0c, 0x00, 0x00, 0x00,
  0x74, 0x66, 0x6c, 0x2e, 0x71, 0x75, 0x61, 0x6e, 0x74, 0x69, 0x7a, 0x65,
  0x00, 0x00, 0x00, 0x00, 0x02, 0x00, 0x00, 0x00, 0x01, 0x00, 0x00, 0x00,
  0x10, 0x00, 0x00, 0x00, 0x3a, 0xff, 0xff, 0xff, 0x00, 0x00, 0x00, 0x01,
  0x14, 0x00, 0x00, 0x00, 0x30, 0x00, 0x00, 0x00, 0x04, 0x00, 0x00, 0x00,
  0x00, 0x00, 0x00, 0x09, 0x3c, 0x00, 0x00, 0x00, 0x24, 0xff, 0xff, 0xff,
  0x08, 0x00, 0x00, 0x00, 0x10, 0x00, 0x00, 0x00, 0x01, 0x00, 0x00, 0x00,
  0x00, 0x00, 0x00, 0x00, 0x00, 0x00, 0x00, 0x00, 0x01, 0x00, 0x00, 0x00,
  0x21, 0x4f, 0x36, 0x3b, 0x12, 0x00, 0x00, 0x00, 0x74, 0x66, 0x6c, 0x2e,
  0x70, 0x73, 0x65, 0x75, 0x64, 0x6f, 0x5f, 0x71, 0x63, 0x6f, 0x6e, 0x73,
  0x74, 0x32, 0x00, 0x00, 0x02, 0x00, 0x00, 0x00, 0x20, 0x00, 0x00, 0x00,
  0x10, 0x00, 0x00, 0x00, 0x9a, 0xff, 0xff, 0xff, 0x00, 0x00, 0x00, 0x01,
  0x14, 0x00, 0x00, 0x00, 0x34, 0x00, 0x00, 0x00, 0x03, 0x00, 0x00, 0x00,
  0x00, 0x00, 0x00, 0x09, 0x40, 0x00, 0x00, 0x00, 0x84, 0xff, 0xff, 0xff,
  0x08, 0x00, 0x00, 0x00, 0x14, 0x00, 0x00, 0x00, 0x01, 0x00, 0x00, 0x00,
  0x00, 0x00, 0x00, 0x00, 0x00, 0x00, 0x00, 0x00, 0x00, 0x00, 0x00, 0x00,
  0x01, 0x00, 0x00, 0x00, 0x72, 0x56, 0x36, 0x3b, 0x12, 0x00, 0x00, 0x00,
  0x74, 0x66, 0x6c, 0x2e, 0x70, 0x73, 0x65, 0x75, 0x64, 0x6f, 0x5f, 0x71,
  0x63, 0x6f, 0x6e, 0x73, 0x74, 0x31, 0x00, 0x00, 0x02, 0x00, 0x00, 0x00,
  0x10, 0x00, 0x00, 0x00, 0x20, 0x00, 0x00, 0x00, 0x00, 0x00, 0x16, 0x00,
  0x1c, 0x00, 0x18, 0x00, 0x17, 0x00, 0x10, 0x00, 0x0c, 0x00, 0x08, 0x00,
  0x00, 0x00, 0x00, 0x00, 0x00, 0x00, 0x07, 0x00, 0x16, 0x00, 0x00, 0x00,
  0x00, 0x00, 0x00, 0x01, 0x20, 0x00, 0x00, 0x00, 0x40, 0x00, 0x00, 0x00,
  0x02, 0x00, 0x00, 0x00, 0x00, 0x00, 0x00, 0x09, 0x4c, 0x00, 0x00, 0x00,
  0x0c, 0x00, 0x0c, 0x00, 0x00, 0x00, 0x00, 0x00, 0x08, 0x00, 0x04, 0x00,
  0x0c, 0x00, 0x00, 0x00, 0x08, 0x00, 0x00, 0x00, 0x14, 0x00, 0x00, 0x00,
  0x01, 0x00, 0x00, 0x00, 0x00, 0x00, 0x00, 0x00, 0x00, 0x00, 0x00, 0x00,
  0x00, 0x00, 0x00, 0x00, 0x01, 0x00, 0x00, 0x00, 0x4b, 0x58, 0x95, 0x3b,
  0x11, 0x00, 0x00, 0x00, 0x74, 0x66, 0x6c, 0x2e, 0x70, 0x73, 0x65, 0x75,
  0x64, 0x6f, 0x5f, 0x71, 0x63, 0x6f, 0x6e, 0x73, 0x74, 0x00, 0x00, 0x00,
  0x02, 0x00, 0x00, 0x00, 0x01, 0x00, 0x00, 0x00, 0x10, 0x00, 0x00, 0x00,
  0x00, 0x00, 0x16, 0x00, 0x1c, 0x00, 0x18, 0x00, 0x00, 0x00, 0x14, 0x00,
  0x10, 0x00, 0x0c, 0x00, 0x00, 0x00, 0x00, 0x00, 0x08, 0x00, 0x07, 0x00,
  0x16, 0x00, 0x00, 0x00, 0x00, 0x00, 0x00, 0x01, 0x14, 0x00, 0x00, 0x00,
  0x20, 0x00, 0x00, 0x00, 0x20, 0x00, 0x00, 0x00, 0x01, 0x00, 0x00, 0x00,
  0x40, 0x00, 0x00, 0x00, 0x02, 0x00, 0x00, 0x00, 0xff, 0xff, 0xff, 0xff,
  0x10, 0x00, 0x00, 0x00, 0x04, 0x00, 0x04, 0x00, 0x04, 0x00, 0x00, 0x00,
  0x20, 0x00, 0x00, 0x00, 0x73, 0x65, 0x72, 0x76, 0x69, 0x6e, 0x67, 0x5f,
  0x64, 0x65, 0x66, 0x61, 0x75, 0x6c, 0x74, 0x5f, 0x6b, 0x65, 0x72, 0x61,
  0x73, 0x5f, 0x74, 0x65, 0x6e, 0x73, 0x6f, 0x72, 0x5f, 0x34, 0x3a, 0x30,
  0x00, 0x00, 0x00, 0x00, 0x02, 0x00, 0x00, 0x00, 0x01, 0x00, 0x00, 0x00,
  0x10, 0x00, 0x00, 0x00, 0x03, 0x00, 0x00, 0x00, 0x44, 0x00, 0x00, 0x00,
  0x24, 0x00, 0x00, 0x00, 0x04, 0x00, 0x00, 0x00, 0xf0, 0xff, 0xff, 0xff,
  0x06, 0x00, 0x00, 0x00, 0x02, 0x00, 0x00, 0x00, 0x00, 0x00, 0x00, 0x06,
  0x0c, 0x00, 0x10, 0x00, 0x0f, 0x00, 0x00, 0x00, 0x08, 0x00, 0x04, 0x00,
  0x0c, 0x00, 0x00, 0x00, 0x09, 0x00, 0x00, 0x00, 0x04, 0x00, 0x00, 0x00,
  0x00, 0x00, 0x00, 0x09, 0x0c, 0x00, 0x0c, 0x00, 0x0b, 0x00, 0x00, 0x00,
  0x00, 0x00, 0x04, 0x00, 0x0c, 0x00, 0x00, 0x00, 0x72, 0x00, 0x00, 0x00,
  0x00, 0x00, 0x00, 0x72
};

const int Primeiro_int8_len = 3328;
