#ifdef __has_attribute
#define HAVE_ATTRIBUTE(x) __has_attribute(x)
#else
#define HAVE_ATTRIBUTE(x) 0
#endif
#if HAVE_ATTRIBUTE(aligned) || (defined(__GNUC__) && !defined(__clang__))
#define DATA_ALIGN_ATTRIBUTE __attribute__((aligned(4)))
#else
#define DATA_ALIGN_ATTRIBUTE
#endif
    
const unsigned char Primeiro_float32[]  DATA_ALIGN_ATTRIBUTE = {
 0x1c, 0x00, 0x00, 0x00, 0x54, 0x46, 0x4c, 0x33, 0x14, 0x00, 0x20, 0x00,
  0x1c, 0x00, 0x18, 0x00, 0x14, 0x00, 0x10, 0x00, 0x0c, 0x00, 0x00, 0x00,
  0x08, 0x00, 0x04, 0x00, 0x14, 0x00, 0x00, 0x00, 0x1c, 0x00, 0x00, 0x00,
  0x98, 0x00, 0x00, 0x00, 0xf0, 0x00, 0x00, 0x00, 0x14, 0x12, 0x00, 0x00,
  0x24, 0x12, 0x00, 0x00, 0x2c, 0x16, 0x00, 0x00, 0x03, 0x00, 0x00, 0x00,
  0x01, 0x00, 0x00, 0x00, 0x10, 0x00, 0x00, 0x00, 0x00, 0x00, 0x0a, 0x00,
  0x10, 0x00, 0x0c, 0x00, 0x08, 0x00, 0x04, 0x00, 0x0a, 0x00, 0x00, 0x00,
  0x0c, 0x00, 0x00, 0x00, 0x1c, 0x00, 0x00, 0x00, 0x3c, 0x00, 0x00, 0x00,
  0x0f, 0x00, 0x00, 0x00, 0x73, 0x65, 0x72, 0x76, 0x69, 0x6e, 0x67, 0x5f,
  0x64, 0x65, 0x66, 0x61, 0x75, 0x6c, 0x74, 0x00, 0x01, 0x00, 0x00, 0x00,
  0x04, 0x00, 0x00, 0x00, 0x90, 0xff, 0xff, 0xff, 0x06, 0x00, 0x00, 0x00,
  0x04, 0x00, 0x00, 0x00, 0x08, 0x00, 0x00, 0x00, 0x6f, 0x75, 0x74, 0x70,
  0x75, 0x74, 0x5f, 0x30, 0x00, 0x00, 0x00, 0x00, 0x01, 0x00, 0x00, 0x00,
  0x04, 0x00, 0x00, 0x00, 0xba, 0xee, 0xff, 0xff, 0x04, 0x00, 0x00, 0x00,
  0x0e, 0x00, 0x00, 0x00, 0x6b, 0x65, 0x72, 0x61, 0x73, 0x5f, 0x74, 0x65,
  0x6e, 0x73, 0x6f, 0x72, 0x5f, 0x34, 0x00, 0x00, 0x02, 0x00, 0x00, 0x00,
  0x34, 0x00, 0x00, 0x00, 0x04, 0x00, 0x00, 0x00, 0xdc, 0xff, 0xff, 0xff,
  0x09, 0x00, 0x00, 0x00, 0x04, 0x00, 0x00, 0x00, 0x13, 0x00, 0x00, 0x00,
  0x43, 0x4f, 0x4e, 0x56, 0x45, 0x52, 0x53, 0x49, 0x4f, 0x4e, 0x5f, 0x4d,
  0x45, 0x54, 0x41, 0x44, 0x41, 0x54, 0x41, 0x00, 0x08, 0x00, 0x0c, 0x00,
  0x08, 0x00, 0x04, 0x00, 0x08, 0x00, 0x00, 0x00, 0x08, 0x00, 0x00, 0x00,
  0x04, 0x00, 0x00, 0x00, 0x13, 0x00, 0x00, 0x00, 0x6d, 0x69, 0x6e, 0x5f,
  0x72, 0x75, 0x6e, 0x74, 0x69, 0x6d, 0x65, 0x5f, 0x76, 0x65, 0x72, 0x73,
  0x69, 0x6f, 0x6e, 0x00, 0x0a, 0x00, 0x00, 0x00, 0x20, 0x11, 0x00, 0x00,
  0x18, 0x11, 0x00, 0x00, 0xc8, 0x10, 0x00, 0x00, 0xb0, 0x08, 0x00, 0x00,
  0xa0, 0x00, 0x00, 0x00, 0x98, 0x00, 0x00, 0x00, 0x90, 0x00, 0x00, 0x00,
  0x88, 0x00, 0x00, 0x00, 0x68, 0x00, 0x00, 0x00, 0x04, 0x00, 0x00, 0x00,
  0x5e, 0xef, 0xff, 0xff, 0x04, 0x00, 0x00, 0x00, 0x54, 0x00, 0x00, 0x00,
  0x0c, 0x00, 0x00, 0x00, 0x08, 0x00, 0x0e, 0x00, 0x08, 0x00, 0x04, 0x00,
  0x08, 0x00, 0x00, 0x00, 0x10, 0x00, 0x00, 0x00, 0x24, 0x00, 0x00, 0x00,
  0x00, 0x00, 0x06, 0x00, 0x08, 0x00, 0x04, 0x00, 0x06, 0x00, 0x00, 0x00,
  0x04, 0x00, 0x00, 0x00, 0x00, 0x00, 0x00, 0x00, 0x00, 0x00, 0x0a, 0x00,
  0x10, 0x00, 0x0c, 0x00, 0x08, 0x00, 0x04, 0x00, 0x0a, 0x00, 0x00, 0x00,
  0x01, 0x00, 0x00, 0x00, 0x02, 0x00, 0x00, 0x00, 0x04, 0x00, 0x00, 0x00,
  0x06, 0x00, 0x00, 0x00, 0x32, 0x2e, 0x31, 0x36, 0x2e, 0x31, 0x00, 0x00,
  0xbe, 0xef, 0xff, 0xff, 0x04, 0x00, 0x00, 0x00, 0x10, 0x00, 0x00, 0x00,
  0x31, 0x2e, 0x35, 0x2e, 0x30, 0x00, 0x00, 0x00, 0x00, 0x00, 0x00, 0x00,
  0x00, 0x00, 0x00, 0x00, 0x9c, 0xeb, 0xff, 0xff, 0xa0, 0xeb, 0xff, 0xff,
  0xa4, 0xeb, 0xff, 0xff, 0xe6, 0xef, 0xff, 0xff, 0x04, 0x00, 0x00, 0x00,
  0x00, 0x08, 0x00, 0x00, 0xc8, 0x59, 0x32, 0x3d, 0xff, 0xc9, 0x94, 0x3e,
  0xf9, 0x71, 0xa1, 0x3e, 0xf7, 0x79, 0x96, 0x3e, 0xf7, 0x27, 0xb0, 0x3e,
  0x60, 0x91, 0x46, 0x3d, 0x27, 0x1d, 0x83, 0x3e, 0x77, 0x6a, 0x39, 0xbe,
  0xd1, 0x38, 0x38, 0xbe, 0x88, 0xa4, 0xba, 0xbd, 0x00, 0x13, 0x1f, 0xbc,
  0xfc, 0x57, 0xd7, 0xbd, 0xf8, 0x98, 0x5d, 0xbd, 0xfc, 0x09, 0xdc, 0x3d,
  0x9a, 0xea, 0x50, 0x3e, 0xd8, 0x07, 0xdb, 0xbd, 0x08, 0xd1, 0xf1, 0xbd,
  0xf3, 0x31, 0x98, 0xbe, 0x4c, 0x3b, 0xb1, 0xbe, 0x6b, 0xfe, 0xa3, 0x3e,
  0x6b, 0xfd, 0xa9, 0xbe, 0xaa, 0x72, 0x6e, 0x3e, 0xa8, 0x0a, 0xb5, 0x3d,
  0x03, 0x5b, 0x84, 0x3e, 0x77, 0x11, 0xb1, 0x3e, 0xbf, 0xdf, 0xa8, 0xbe,
  0x91, 0x29, 0xac, 0x3e, 0x77, 0x92, 0x5e, 0xbe, 0xe0, 0x44, 0xb1, 0x3c,
  0x1a, 0x89, 0xb3, 0xbe, 0x68, 0x9b, 0x98, 0xbe, 0xea, 0x44, 0x7a, 0xbe,
  0xf0, 0x81, 0x75, 0xbd, 0x11, 0xb3, 0x8b, 0x3e, 0x8a, 0xdb, 0x7c, 0xbe,
  0x18, 0x8e, 0x4d, 0xbd, 0x80, 0xd4, 0x89, 0x3d, 0x58, 0x27, 0x5b, 0xbd,
  0x40, 0xbc, 0xfd, 0xbc, 0x4e, 0x21, 0x9b, 0xbe, 0x20, 0x6f, 0xcb, 0x3c,
  0xc3, 0x63, 0x58, 0xbe, 0xf0, 0xbc, 0xd6, 0x3c, 0x76, 0x5c, 0x35, 0x3e,
  0x93, 0x29, 0xa2, 0x3e, 0xa1, 0xc9, 0x36, 0xbe, 0x80, 0xa3, 0xe3, 0x3c,
  0x23, 0x26, 0x57, 0xbe, 0x20, 0xc7, 0x55, 0xbe, 0x00, 0x67, 0x44, 0xbd,
  0x56, 0x77, 0x1e, 0x3e, 0xb8, 0x9a, 0x16, 0xbd, 0xe6, 0xff, 0xac, 0xbe,
  0x21, 0x53, 0xa0, 0xbe, 0x8c, 0xa1, 0xa9, 0x3d, 0xee, 0xb6, 0x2e, 0x3e,
  0xea, 0xef, 0x28, 0x3e, 0x31, 0x05, 0x98, 0x3e, 0xf0, 0xbe, 0xba, 0x3c,
  0x4a, 0x4e, 0x45, 0x3e, 0xa3, 0x41, 0x51, 0xbe, 0x0c, 0x7e, 0x6f, 0xbe,
  0xdb, 0x7a, 0x83, 0xbe, 0x09, 0x1a, 0x9b, 0xbe, 0xa1, 0x31, 0xa2, 0xbe,
  0x77, 0x7c, 0xa3, 0x3e, 0x51, 0x82, 0x89, 0xbe, 0x58, 0xc2, 0x05, 0xbd,
  0x95, 0xfb, 0x87, 0x3e, 0x8b, 0x7e, 0xaa, 0x3e, 0x5d, 0xf0, 0x3f, 0xbe,
  0x60, 0x9d, 0xdb, 0x3c, 0x70, 0x6c, 0x8c, 0xbc, 0x32, 0x74, 0x89, 0xbe,
  0x80, 0x46, 0x71, 0x3c, 0x80, 0x40, 0x4a, 0x3c, 0x4f, 0x89, 0x81, 0xbe,
  0xe0, 0x41, 0x64, 0xbc, 0x27, 0x85, 0x03, 0xbe, 0xc1, 0x6d, 0xa0, 0xbe,
  0x45, 0x52, 0x82, 0x3e, 0xef, 0x1f, 0x97, 0x3e, 0x50, 0x99, 0xac, 0xbe,
  0xca, 0x0f, 0x97, 0xbe, 0x79, 0x62, 0x98, 0xbe, 0x00, 0x79, 0xba, 0xbd,
  0x80, 0xef, 0x03, 0xbd, 0x96, 0xef, 0x4b, 0x3e, 0x7c, 0x04, 0xcb, 0x3d,
  0xea, 0xf9, 0xa9, 0xbe, 0x74, 0xa7, 0x07, 0x3e, 0x60, 0x04, 0x58, 0x3c,
  0x5c, 0x17, 0x8f, 0xbd, 0x40, 0x8d, 0xe8, 0xbc, 0x49, 0xaf, 0xab, 0x3e,
  0xe4, 0x5e, 0x9b, 0xbd, 0x16, 0xca, 0x27, 0xbe, 0x0a, 0xe3, 0x44, 0x3e,
  0x48, 0x8d, 0xdc, 0xbd, 0x41, 0x27, 0x09, 0xbe, 0xe8, 0xc7, 0x1c, 0x3d,
  0x37, 0x2a, 0x09, 0xbe, 0x04, 0x85, 0x7a, 0xbe, 0x89, 0xa5, 0x66, 0xbe,
  0x1c, 0x13, 0x10, 0x3e, 0x88, 0x44, 0xb2, 0x3d, 0xef, 0x86, 0xab, 0x3e,
  0x58, 0x56, 0x7c, 0xbd, 0x3e, 0x6e, 0xdb, 0xbd, 0x71, 0xc5, 0x1b, 0xbe,
  0xde, 0xee, 0x07, 0x3e, 0x55, 0x2b, 0x97, 0x3e, 0x10, 0x7c, 0x90, 0xbc,
  0x6a, 0x70, 0x45, 0x3e, 0xa0, 0x96, 0x5d, 0x3c, 0x8e, 0x5f, 0x23, 0x3e,
  0xb6, 0x0d, 0x69, 0x3e, 0xe2, 0xc2, 0x98, 0xbe, 0xd2, 0x01, 0x7a, 0x3e,
  0x30, 0x0d, 0xb6, 0xbd, 0x20, 0xbf, 0xf5, 0x3c, 0xd0, 0x37, 0x4d, 0x3d,
  0x7e, 0x42, 0x95, 0xbe, 0xe7, 0xc8, 0x92, 0xbe, 0x6e, 0x57, 0x40, 0x3e,
  0x9a, 0x6a, 0x5e, 0xbe, 0x2f, 0x78, 0x8d, 0x3e, 0xc2, 0x19, 0xfe, 0xbd,
  0xd0, 0x1a, 0xdd, 0x3c, 0x28, 0x0c, 0x81, 0x3d, 0x40, 0xad, 0xa3, 0xbd,
  0xfa, 0x8a, 0x6b, 0x3e, 0x49, 0x5a, 0x42, 0xbe, 0xd0, 0x85, 0x10, 0x3e,
  0xc0, 0xb3, 0x4a, 0x3d, 0x88, 0x96, 0x9b, 0x3d, 0x3d, 0x8e, 0x57, 0xbe,
  0x7d, 0x03, 0x87, 0xbe, 0xf2, 0x4c, 0x73, 0xbe, 0xd0, 0x24, 0xa3, 0x3d,
  0x46, 0x99, 0x7b, 0x3e, 0x68, 0xcf, 0xa1, 0xbe, 0x3d, 0x8e, 0x42, 0xbe,
  0x86, 0xb3, 0xa9, 0xbe, 0x22, 0x76, 0x4f, 0x3e, 0x6e, 0x8b, 0x94, 0xbe,
  0x2c, 0x1f, 0xf0, 0x3d, 0x07, 0x52, 0x99, 0x3e, 0xbf, 0xee, 0xa8, 0x3e,
  0xcf, 0x52, 0xb3, 0x3e, 0x08, 0x76, 0x6e, 0xbd, 0x90, 0x8e, 0xa0, 0xbd,
  0x36, 0x9a, 0x4c, 0x3e, 0x02, 0xec, 0xb3, 0xbe, 0xe7, 0xbf, 0xae, 0x3e,
  0x92, 0x69, 0x26, 0x3e, 0x73, 0x93, 0x99, 0x3e, 0xb6, 0x5b, 0x01, 0xbe,
  0x0e, 0x44, 0x64, 0xbe, 0x37, 0x6a, 0x21, 0xbe, 0x04, 0x04, 0x4b, 0xbe,
  0xc0, 0x56, 0xf4, 0x3b, 0xd0, 0x7e, 0x9f, 0xbd, 0x36, 0x1a, 0x2d, 0x3e,
  0x21, 0x49, 0x9e, 0xbe, 0x96, 0x65, 0x30, 0x3e, 0x90, 0x5c, 0x0b, 0xbe,
  0x1a, 0x04, 0x2e, 0x3e, 0x50, 0x2a, 0x05, 0x3d, 0x02, 0x85, 0xb0, 0xbe,
  0x56, 0x23, 0x56, 0x3e, 0xe0, 0x9a, 0x6b, 0x3d, 0xd7, 0x01, 0x0a, 0xbe,
  0xc0, 0x84, 0x4a, 0xbc, 0x26, 0x0e, 0xa1, 0xbe, 0x24, 0xc8, 0xe9, 0x3d,
  0x1b, 0x6e, 0xa9, 0xbe, 0xa0, 0xdd, 0xe9, 0xbd, 0x00, 0x0e, 0xef, 0xbc,
  0xa8, 0xb2, 0x68, 0xbd, 0x00, 0xb0, 0x86, 0xbb, 0x75, 0x7d, 0x5d, 0xbe,
  0xc2, 0xf3, 0x6b, 0x3e, 0xbc, 0x8b, 0x97, 0xbe, 0x00, 0xa0, 0x22, 0x38,
  0x84, 0xbf, 0x89, 0xbe, 0x0e, 0xe6, 0x4b, 0x3e, 0x78, 0x4b, 0xb9, 0x3d,
  0xdc, 0x10, 0x31, 0xbe, 0x7e, 0x14, 0x69, 0x3e, 0xef, 0xb1, 0x94, 0x3e,
  0xdf, 0xb1, 0x99, 0x3e, 0xe8, 0xda, 0x50, 0xbd, 0xac, 0x00, 0xea, 0xbd,
  0x40, 0x97, 0x1c, 0x3c, 0x60, 0xa3, 0xd1, 0xbd, 0x3c, 0x5a, 0xee, 0xbd,
  0xb2, 0x1d, 0x4f, 0x3e, 0xf0, 0x30, 0x8e, 0xbe, 0xb1, 0x52, 0x82, 0x3e,
  0x24, 0x24, 0xe9, 0x3d, 0x7e, 0x8f, 0x58, 0xbe, 0xf0, 0x33, 0x4a, 0x3d,
  0x6c, 0x7f, 0xd0, 0xbd, 0x06, 0xcb, 0x9f, 0xbe, 0xfc, 0xd8, 0xe1, 0x3d,
  0x50, 0x8b, 0x62, 0x3d, 0x30, 0x56, 0xd5, 0x3d, 0x52, 0x1b, 0x2f, 0x3e,
  0x57, 0x88, 0x9d, 0x3e, 0x28, 0x8f, 0x7a, 0x3d, 0x58, 0x11, 0xb4, 0x3d,
  0xab, 0xc9, 0x5d, 0xbe, 0xf5, 0xa7, 0x1c, 0xbe, 0xdc, 0xa9, 0x0f, 0x3e,
  0xdc, 0x45, 0xc1, 0xbd, 0xdd, 0xee, 0x93, 0x3e, 0x41, 0x4e, 0x7f, 0xbe,
  0x10, 0x17, 0x90, 0xbd, 0xae, 0xf9, 0x40, 0x3e, 0x12, 0xda, 0x7f, 0x3e,
  0x72, 0xef, 0x73, 0x3e, 0xe7, 0x0c, 0xad, 0xbe, 0xd2, 0x4f, 0x3c, 0xbe,
  0xef, 0x50, 0xa6, 0x3e, 0x06, 0x88, 0xb0, 0xbe, 0x90, 0x7a, 0x40, 0xbd,
  0xa6, 0xea, 0x7d, 0xbe, 0x14, 0xe1, 0xbf, 0x3d, 0xe5, 0xa4, 0x9d, 0x3e,
  0x7c, 0x82, 0xc1, 0x3d, 0x17, 0x59, 0x32, 0xbe, 0xe7, 0xb3, 0x1a, 0xbe,
  0x82, 0x3b, 0x97, 0xbe, 0xc8, 0xdd, 0xa1, 0x3d, 0xfe, 0x46, 0x10, 0x3e,
  0x01, 0x58, 0xaa, 0x3e, 0x09, 0xb8, 0xaf, 0xbe, 0x47, 0x86, 0x8a, 0xbe,
  0xc8, 0xc0, 0x15, 0xbd, 0x89, 0x16, 0x9a, 0x3e, 0x17, 0xc1, 0x8c, 0xbe,
  0xb2, 0xe8, 0x2a, 0xbe, 0xe0, 0x9d, 0x00, 0xbe, 0x66, 0x82, 0x38, 0x3e,
  0xbd, 0x6a, 0x8d, 0xbe, 0x56, 0xa3, 0x3f, 0x3e, 0x8d, 0x97, 0x8d, 0x3e,
  0xcc, 0xc0, 0xde, 0x3d, 0x58, 0x43, 0x04, 0x3e, 0x8b, 0x0f, 0x48, 0xbe,
  0x82, 0x66, 0x0b, 0xbe, 0xc0, 0x09, 0xa0, 0x3c, 0xa1, 0x9d, 0xa2, 0x3e,
  0xd0, 0x31, 0x96, 0xbd, 0x22, 0xe4, 0x95, 0xbe, 0x78, 0x98, 0x5c, 0x3d,
  0x83, 0xe2, 0xb4, 0x3e, 0x6e, 0xff, 0x12, 0x3e, 0x43, 0x81, 0x21, 0xbe,
  0xce, 0x68, 0x29, 0x3e, 0xce, 0xba, 0x68, 0x3e, 0x43, 0xd0, 0x18, 0xbe,
  0xf8, 0x52, 0x63, 0xbd, 0x7f, 0xde, 0xa4, 0xbe, 0x92, 0x3d, 0x66, 0x3e,
  0x00, 0xa9, 0x75, 0x3c, 0x00, 0x92, 0xee, 0xba, 0x86, 0xe1, 0x39, 0x3e,
  0x16, 0x8a, 0x52, 0x3e, 0x07, 0x39, 0x8e, 0x3e, 0x40, 0xcd, 0x22, 0xbc,
  0x1a, 0x2d, 0x6f, 0x3e, 0xd4, 0x20, 0xe1, 0xbd, 0x6c, 0x80, 0x25, 0xbe,
  0xe9, 0xec, 0xa7, 0xbe, 0xd0, 0xb1, 0xc1, 0xbd, 0x54, 0x39, 0xd0, 0x3d,
  0xab, 0x3b, 0xa1, 0x3e, 0xa2, 0x31, 0x28, 0xbe, 0x72, 0x39, 0x37, 0x3e,
  0x84, 0x4c, 0x60, 0xbe, 0x61, 0x1a, 0xaf, 0x3e, 0xc0, 0x93, 0xa1, 0xbd,
  0xff, 0xad, 0xa1, 0xbe, 0x58, 0xf5, 0x20, 0xbe, 0xca, 0xb5, 0x89, 0xbe,
  0x1e, 0x05, 0x71, 0x3e, 0xd9, 0x71, 0x8a, 0x3e, 0x0d, 0xae, 0x43, 0xbe,
  0xc2, 0x8a, 0x1d, 0x3e, 0x6e, 0xf3, 0x33, 0x3e, 0xca, 0x19, 0x78, 0x3e,
  0xb8, 0x86, 0x4b, 0xbe, 0x75, 0x9f, 0xad, 0x3e, 0xcf, 0xf9, 0x0f, 0xbe,
  0x66, 0xb9, 0x70, 0x3e, 0xa8, 0xa5, 0xa9, 0x3d, 0xe8, 0xf3, 0xa5, 0x3d,
  0x20, 0xae, 0xce, 0x3c, 0x98, 0xec, 0xbe, 0x3d, 0xe9, 0x83, 0xaf, 0x3e,
  0x13, 0xa0, 0x8d, 0x3e, 0x6b, 0xdd, 0x30, 0xbe, 0x6f, 0x27, 0x43, 0xbe,
  0xe0, 0xb1, 0x3f, 0x3c, 0x5e, 0xb2, 0x36, 0x3e, 0x1f, 0x53, 0x86, 0xbe,
  0x82, 0xfc, 0x17, 0x3e, 0x44, 0x1a, 0xd3, 0xbd, 0x32, 0xcb, 0x7f, 0x3e,
  0x62, 0xfb, 0x1f, 0x3e, 0x94, 0x87, 0xb4, 0xbd, 0xb7, 0x58, 0x8e, 0x3e,
  0xc9, 0x35, 0x89, 0x3e, 0x00, 0xcd, 0xec, 0x3c, 0x02, 0xf0, 0x37, 0x3e,
  0x05, 0x08, 0x57, 0xbe, 0xd2, 0xb2, 0x29, 0x3e, 0x66, 0x6a, 0x95, 0xbe,
  0xa9, 0x60, 0xb2, 0x3e, 0x06, 0x83, 0x1e, 0x3e, 0x68, 0xcc, 0x5a, 0x3d,
  0x00, 0x40, 0x58, 0x3d, 0xc0, 0x9c, 0xf6, 0xbd, 0xc9, 0x74, 0x52, 0xbe,
  0x6a, 0x41, 0x0e, 0xbe, 0xe4, 0x24, 0xeb, 0x3d, 0x80, 0x14, 0xe2, 0x3c,
  0x49, 0x6b, 0x67, 0xbe, 0xc0, 0x03, 0xc0, 0x3c, 0xa9, 0x9b, 0xa9, 0xbe,
  0x03, 0xcf, 0xb4, 0x3e, 0x20, 0x41, 0x24, 0xbc, 0x54, 0x39, 0x9e, 0xbd,
  0x8a, 0xce, 0xb3, 0xbe, 0x7a, 0x35, 0x5b, 0x3e, 0x60, 0xd5, 0x7b, 0xbc,
  0x26, 0x4e, 0x6e, 0x3e, 0x4f, 0x2b, 0xa5, 0x3e, 0x16, 0x5b, 0x4e, 0x3e,
  0xc8, 0xcf, 0xb1, 0xbd, 0x15, 0x6c, 0xb2, 0xbe, 0xe8, 0x42, 0x2b, 0x3d,
  0x98, 0x5c, 0x23, 0xbe, 0x6e, 0x00, 0x6d, 0x3e, 0x0d, 0x0d, 0xb2, 0x3e,
  0xbc, 0x48, 0xa5, 0xbd, 0xa0, 0x21, 0xf6, 0x3d, 0x76, 0xba, 0x5a, 0x3e,
  0x38, 0x35, 0x45, 0xbd, 0xd4, 0xd7, 0x83, 0xbe, 0x6a, 0xb8, 0x2e, 0x3e,
  0x32, 0x78, 0x34, 0x3e, 0x4f, 0x5f, 0x5a, 0xbe, 0x76, 0x17, 0xae, 0xbe,
  0x5e, 0x20, 0x71, 0xbe, 0x70, 0xd4, 0x47, 0x3d, 0x17, 0xc7, 0x5c, 0xbe,
  0x6c, 0x1c, 0xa3, 0xbd, 0x09, 0x32, 0x92, 0xbe, 0x48, 0xf1, 0x28, 0xbe,
  0x5c, 0xdc, 0xab, 0xbe, 0x78, 0xce, 0x84, 0xbe, 0x44, 0x1e, 0xb7, 0x3d,
  0x95, 0x51, 0x74, 0xbe, 0xdb, 0x60, 0xa8, 0x3e, 0x60, 0x71, 0x88, 0xbe,
  0x02, 0x99, 0x32, 0x3e, 0x0d, 0x6b, 0xa8, 0x3e, 0xa7, 0x3e, 0x83, 0x3e,
  0xe1, 0xa8, 0x8c, 0x3e, 0xe0, 0xf6, 0x40, 0xbe, 0x42, 0x63, 0x63, 0x3e,
  0x00, 0xbb, 0xe1, 0x3b, 0xd0, 0x59, 0xce, 0xbc, 0x52, 0xd1, 0x35, 0x3e,
  0x31, 0x61, 0x33, 0xbe, 0xf8, 0x33, 0xa5, 0x3d, 0x54, 0xb4, 0xf2, 0x3d,
  0xc8, 0x6e, 0xaa, 0x3d, 0xb5, 0x92, 0x8c, 0xbe, 0xe0, 0x76, 0xf1, 0xbd,
  0xc0, 0xe2, 0xcf, 0x3d, 0xd1, 0x12, 0x89, 0x3e, 0xed, 0x39, 0xa0, 0xbe,
  0x3e, 0x77, 0x1f, 0xbe, 0x5f, 0xc0, 0xb2, 0xbe, 0x20, 0x10, 0x64, 0x3d,
  0x00, 0x20, 0xb4, 0x3a, 0xec, 0x16, 0xc9, 0x3d, 0x20, 0xcd, 0x92, 0xbc,
  0x3e, 0xac, 0x48, 0x3e, 0xb0, 0xca, 0xab, 0xbc, 0x06, 0x48, 0x76, 0x3e,
  0xc3, 0x29, 0x89, 0x3e, 0xfa, 0x02, 0x4b, 0x3e, 0xee, 0xcd, 0x3c, 0x3e,
  0xcc, 0xb2, 0x11, 0x3e, 0x52, 0x4b, 0x44, 0x3e, 0x48, 0xf6, 0x24, 0x3d,
  0xd4, 0xaf, 0x1b, 0xbe, 0x40, 0xa2, 0xb6, 0x3d, 0x44, 0x92, 0x8d, 0x3d,
  0x16, 0x67, 0x41, 0xbe, 0x28, 0x44, 0x52, 0x3d, 0xf1, 0x56, 0x50, 0xbe,
  0x88, 0x03, 0xa3, 0xbe, 0x2c, 0xad, 0x8b, 0xbe, 0x20, 0xa2, 0x47, 0x3c,
  0xdc, 0xea, 0x33, 0xbe, 0x77, 0x4f, 0x1f, 0xbe, 0x78, 0xc6, 0x7e, 0xbe,
  0xe2, 0x57, 0x55, 0x3e, 0x00, 0x7d, 0xed, 0x3d, 0x10, 0x83, 0x39, 0xbd,
  0xae, 0xd7, 0x48, 0x3e, 0x73, 0x80, 0xa9, 0x3e, 0x6a, 0x64, 0x30, 0xbe,
  0x40, 0xf3, 0x42, 0x3d, 0x40, 0x55, 0x73, 0x3c, 0xa4, 0xa3, 0xbf, 0x3d,
  0xd4, 0x7b, 0xf4, 0x3d, 0x16, 0x05, 0x78, 0xbe, 0x0a, 0x78, 0x8e, 0xbe,
  0xaa, 0x3c, 0x56, 0x3e, 0x3e, 0x22, 0x3c, 0x3e, 0x40, 0x8b, 0x1d, 0xbc,
  0x36, 0x5b, 0x1a, 0x3e, 0x5c, 0x1c, 0x72, 0xbe, 0x15, 0x32, 0x6e, 0xbe,
  0x47, 0x52, 0x83, 0x3e, 0xda, 0x5c, 0x28, 0xbe, 0xb0, 0x7d, 0xf1, 0x3d,
  0xaf, 0x06, 0x8b, 0xbe, 0xee, 0x24, 0x77, 0x3e, 0x68, 0x60, 0x56, 0x3d,
  0xa2, 0x8a, 0xa9, 0xbe, 0xd8, 0xc0, 0x85, 0xbd, 0x92, 0x00, 0x08, 0x3e,
  0x8b, 0x9e, 0x83, 0xbe, 0x6f, 0xfe, 0xa0, 0x3e, 0x58, 0x01, 0x2e, 0x3d,
  0xf1, 0x9f, 0x99, 0xbe, 0x0d, 0xa2, 0x26, 0xbe, 0xc7, 0xe8, 0xa7, 0x3e,
  0xae, 0xd1, 0x67, 0xbe, 0x42, 0xa5, 0x46, 0x3e, 0xd6, 0x56, 0x53, 0x3e,
  0xb4, 0x91, 0x9d, 0xbe, 0xf4, 0x64, 0xa8, 0xbe, 0x50, 0xfc, 0x81, 0xbd,
  0xa2, 0x81, 0x3a, 0x3e, 0x39, 0xc5, 0x34, 0xbe, 0x8b, 0xb7, 0x9f, 0xbe,
  0x8a, 0x65, 0x86, 0xbe, 0x88, 0x2b, 0x83, 0xbd, 0xed, 0x12, 0x26, 0xbe,
  0x4b, 0xf1, 0x97, 0x3e, 0xcc, 0xab, 0x96, 0x3d, 0x80, 0x0c, 0x6b, 0x3d,
  0x00, 0xc5, 0xf7, 0xbb, 0xc1, 0x46, 0x63, 0xbe, 0x42, 0x8f, 0x6f, 0x3e,
  0x4c, 0xd4, 0xe9, 0xbd, 0x14, 0x0b, 0xd1, 0xbd, 0x6d, 0x6a, 0xa3, 0x3e,
  0x41, 0x07, 0x0a, 0xbe, 0x2e, 0xdf, 0x49, 0x3e, 0xa1, 0x08, 0x8f, 0xbe,
  0x30, 0x74, 0xd2, 0xbd, 0xe4, 0xf6, 0x31, 0xbe, 0x8d, 0x42, 0x21, 0xbe,
  0x6f, 0xc0, 0xa4, 0x3e, 0x36, 0x57, 0x4b, 0xbe, 0x78, 0xfb, 0x38, 0xbe,
  0xee, 0xb5, 0x1f, 0xbe, 0x97, 0x58, 0x9d, 0x3e, 0xe2, 0x59, 0x32, 0x3e,
  0xdc, 0xe6, 0xc7, 0xbd, 0x45, 0xda, 0x21, 0xbe, 0x30, 0x77, 0xc6, 0x3c,
  0x80, 0x92, 0xcb, 0xbb, 0x25, 0x48, 0xa9, 0xbe, 0x36, 0x06, 0x97, 0xbe,
  0xb6, 0x26, 0x20, 0x3e, 0x80, 0xfa, 0x14, 0xbc, 0xc0, 0x96, 0xbd, 0x3d,
  0x6a, 0x95, 0x2a, 0x3e, 0xa0, 0x63, 0x58, 0x3d, 0x38, 0x2c, 0xc9, 0x3d,
  0x0f, 0x9a, 0x5b, 0xbe, 0xd0, 0x35, 0x0b, 0x3d, 0xa8, 0xc4, 0x2f, 0xbd,
  0x13, 0x67, 0x86, 0xbe, 0xf0, 0x97, 0xfa, 0xbc, 0x7a, 0x69, 0x39, 0x3e,
  0x12, 0x92, 0x2f, 0x3e, 0x0c, 0x42, 0x9a, 0xbe, 0x00, 0x6f, 0x79, 0xbd,
  0x40, 0xa8, 0x99, 0xbb, 0x64, 0x16, 0x94, 0xbe, 0x80, 0xef, 0xa4, 0xbb,
  0x28, 0x67, 0x35, 0xbd, 0x86, 0x45, 0x5d, 0x3e, 0xcb, 0x51, 0x76, 0xbe,
  0x21, 0x6f, 0xb0, 0xbe, 0x1c, 0x5c, 0x85, 0xbe, 0x3c, 0x77, 0x8e, 0xbd,
  0x29, 0xcb, 0x96, 0x3e, 0xdf, 0x87, 0xaf, 0x3e, 0xdf, 0xea, 0x8d, 0x3e,
  0xf2, 0xf7, 0xff, 0xff, 0x04, 0x00, 0x00, 0x00, 0x00, 0x08, 0x00, 0x00,
  0x1f, 0xcb, 0x93, 0x3e, 0xe2, 0x8f, 0x59, 0xbe, 0xf0, 0x2d, 0x4c, 0x3d,
  0xa5, 0xcd, 0x80, 0x3e, 0x68, 0x1a, 0x8c, 0x3d, 0xa8, 0x69, 0xa4, 0xbe,
  0x36, 0x1b, 0x91, 0xbe, 0xae, 0x57, 0x67, 0x3e, 0xcf, 0xd8, 0x32, 0xbe,
  0xff, 0xfc, 0x89, 0x3e, 0xc7, 0x17, 0xa4, 0x3e, 0x04, 0x8d, 0x2e, 0xbe,
  0x90, 0xca, 0xa2, 0xbe, 0xa6, 0xa2, 0x50, 0xbe, 0x2a, 0xd5, 0x1a, 0x3e,
  0xf0, 0x97, 0xe5, 0xbc, 0x00, 0x8c, 0xdb, 0x3a, 0x3c, 0x43, 0x1d, 0xbe,
  0x85, 0x40, 0x57, 0xbe, 0x5b, 0x73, 0x81, 0xbe, 0x10, 0x5b, 0x67, 0xbe,
  0x67, 0xdb, 0x91, 0x3e, 0x80, 0x27, 0xa4, 0xbe, 0x7e, 0x01, 0x65, 0xbe,
  0x48, 0xc7, 0xcb, 0x3d, 0x3a, 0x5c, 0x33, 0x3e, 0x0c, 0xd8, 0xfb, 0x3d,
  0xf0, 0x41, 0xa0, 0x3d, 0xa8, 0xa4, 0x50, 0xbe, 0xb6, 0xf7, 0x25, 0x3e,
  0x95, 0x9d, 0xad, 0xbe, 0x0c, 0x3c, 0x2b, 0xbe, 0x00, 0x35, 0x33, 0xbe,
  0xfe, 0xc7, 0x68, 0x3e, 0xd0, 0x4c, 0xa0, 0xbd, 0x80, 0x80, 0x86, 0xbb,
  0x24, 0xb1, 0x11, 0x3e, 0xba, 0x9d, 0x5a, 0x3e, 0x60, 0xe4, 0x8e, 0xbc,
  0xb9, 0x2b, 0x19, 0xbe, 0x07, 0xe7, 0x82, 0x3e, 0x98, 0x6b, 0x7c, 0xbe,
  0x50, 0x46, 0x6c, 0xbe, 0xb0, 0x63, 0x2c, 0xbd, 0x15, 0xa3, 0x12, 0xbe,
  0xc5, 0xe8, 0x95, 0x3e, 0xfd, 0x41, 0x5e, 0xbe, 0x92, 0x2e, 0x11, 0x3e,
  0x34, 0x82, 0xc5, 0xbd, 0x9d, 0xd8, 0xaf, 0x3e, 0x8f, 0x3a, 0x39, 0xbe,
  0x38, 0x86, 0x20, 0xbe, 0x17, 0x66, 0x13, 0xbe, 0x90, 0xa9, 0xe0, 0x3c,
  0x16, 0xd7, 0x9d, 0xbe, 0xe6, 0x32, 0x0d, 0xbe, 0x45, 0xbe, 0xa4, 0x3e,
  0xe8, 0x83, 0x44, 0xbd, 0x70, 0xb5, 0x23, 0x3d, 0xf6, 0x84, 0x59, 0x3e,
  0x9e, 0xff, 0x5e, 0x3e, 0x6f, 0x8e, 0xae, 0x3e, 0x0d, 0xc8, 0x8e, 0xbe,
  0x8d, 0x16, 0xa6, 0xbe, 0x04, 0xb7, 0xc8, 0xbd, 0x3d, 0x40, 0x9c, 0x3e,
  0x92, 0xc5, 0x78, 0xbe, 0xdf, 0x1d, 0x87, 0x3e, 0x40, 0xd2, 0x86, 0x3c,
  0xb7, 0xc9, 0xac, 0x3e, 0x07, 0x66, 0xa5, 0xbe, 0x08, 0x7c, 0xe3, 0xbd,
  0x78, 0xc3, 0x14, 0xbe, 0x23, 0xaf, 0x36, 0xbe, 0x3a, 0xa3, 0xa7, 0xbe,
  0xc5, 0x21, 0x92, 0x3e, 0x82, 0xda, 0x51, 0x3e, 0x36, 0x3e, 0x56, 0x3e,
  0x47, 0x49, 0xa8, 0x3e, 0xfb, 0xb3, 0x9c, 0xbe, 0x6c, 0x44, 0x9e, 0xbd,
  0x5c, 0x44, 0x88, 0xbd, 0xfb, 0x29, 0xad, 0xbe, 0xb3, 0xe0, 0xac, 0x3e,
  0x7e, 0xa5, 0x19, 0x3e, 0x13, 0xcc, 0xa0, 0x3e, 0x0a, 0xf8, 0x18, 0x3e,
  0xed, 0x36, 0xae, 0xbe, 0x0b, 0x60, 0xaf, 0x3e, 0xaa, 0xf7, 0x87, 0xbe,
  0x1d, 0x66, 0x90, 0x3e, 0x20, 0xd5, 0xa3, 0xbc, 0x0b, 0x6f, 0xa3, 0xbe,
  0x49, 0xff, 0xa2, 0x3e, 0x0a, 0x46, 0x2e, 0xbe, 0x78, 0x0d, 0x24, 0xbd,
  0x54, 0x68, 0xa7, 0xbd, 0x6d, 0xca, 0xae, 0x3e, 0x11, 0xae, 0x01, 0xbe,
  0x00, 0x72, 0x2c, 0xbd, 0xaf, 0x72, 0xa8, 0xbe, 0x14, 0xf5, 0x87, 0x3d,
  0xc3, 0x0f, 0x34, 0xbe, 0x5f, 0xb0, 0x6d, 0xbe, 0xf2, 0x6b, 0x55, 0x3e,
  0xee, 0x96, 0x5f, 0x3e, 0x9a, 0x8e, 0x5d, 0xbe, 0x02, 0x0f, 0x38, 0x3e,
  0xd8, 0xaa, 0xcc, 0xbd, 0x3b, 0x13, 0x3c, 0xbe, 0xd9, 0xc8, 0x1a, 0xbe,
  0x00, 0xd2, 0x07, 0x3b, 0xae, 0xc9, 0x8f, 0xbe, 0x2c, 0x6f, 0x0f, 0xbe,
  0x1a, 0xc5, 0x68, 0xbe, 0x26, 0xb7, 0x89, 0xbe, 0x4a, 0x41, 0xd8, 0xbd,
  0xc0, 0xad, 0x9d, 0x3c, 0x70, 0x28, 0xf1, 0xbc, 0x60, 0x6d, 0xc2, 0x3d,
  0x0f, 0x48, 0x93, 0xbe, 0x78, 0xd3, 0x61, 0x3d, 0x2d, 0xdc, 0x8f, 0x3e,
  0xd4, 0x64, 0xc9, 0x3d, 0xf0, 0xfe, 0xe8, 0xbc, 0x15, 0x7d, 0x86, 0x3e,
  0x2f, 0x32, 0x91, 0x3e, 0x39, 0x99, 0x17, 0xbe, 0x93, 0x03, 0x9c, 0x3e,
  0x00, 0x6e, 0x55, 0x3b, 0xd3, 0x5c, 0x3a, 0xbe, 0x80, 0xcb, 0x7c, 0xbc,
  0x37, 0x96, 0x5f, 0xbe, 0x9e, 0xc3, 0x18, 0x3e, 0xd4, 0x2a, 0x8b, 0x3d,
  0xf6, 0x49, 0x6b, 0xbe, 0x52, 0x16, 0x91, 0xbe, 0xd0, 0x49, 0x07, 0x3d,
  0x40, 0x0d, 0x71, 0xbc, 0xba, 0x65, 0x1c, 0x3e, 0xa4, 0x2e, 0x99, 0xbe,
  0x15, 0x8f, 0xaa, 0x3e, 0xf9, 0xf7, 0xa0, 0xbe, 0x61, 0xf1, 0x87, 0x3e,
  0x90, 0x32, 0x82, 0x3c, 0xc2, 0x9a, 0x00, 0x3e, 0x18, 0x95, 0x2c, 0xbd,
  0x00, 0xf6, 0x8a, 0x3c, 0xc0, 0xd6, 0xf0, 0xbb, 0x10, 0x83, 0xe6, 0xbd,
  0x12, 0x7e, 0x85, 0xbe, 0xa2, 0x04, 0x59, 0x3e, 0x5a, 0x9a, 0x13, 0x3e,
  0x4b, 0x4f, 0x9c, 0xbe, 0x9b, 0x3a, 0xa6, 0x3e, 0x20, 0xbd, 0x28, 0x3c,
  0x5e, 0x27, 0x47, 0x3e, 0xf4, 0x43, 0xb9, 0xbd, 0x78, 0xd8, 0xd2, 0x3d,
  0xa4, 0x55, 0x88, 0xbd, 0xb0, 0xe4, 0x05, 0x3e, 0x54, 0x94, 0xae, 0x3d,
  0x3e, 0x62, 0x9c, 0xbe, 0xf4, 0x9a, 0xa1, 0xbd, 0x99, 0x1a, 0x54, 0xbe,
  0x0c, 0xcb, 0x14, 0x3e, 0x21, 0x01, 0xac, 0x3e, 0x31, 0xd5, 0x93, 0x3e,
  0x01, 0x7a, 0x9d, 0x3e, 0x13, 0xaa, 0x95, 0x3e, 0x6a, 0x53, 0x14, 0x3e,
  0x19, 0x10, 0x98, 0x3e, 0x4d, 0xec, 0x92, 0xbe, 0xcf, 0x56, 0x9d, 0x3e,
  0xd1, 0xf7, 0x89, 0xbe, 0x96, 0x73, 0x5c, 0x3e, 0xbf, 0x11, 0xa1, 0x3e,
  0x90, 0x34, 0xd2, 0xbc, 0xde, 0xee, 0x2d, 0xbe, 0x10, 0xaf, 0x7b, 0xbe,
  0x2c, 0xd4, 0x21, 0xbe, 0xe9, 0xd3, 0xa8, 0x3e, 0x1e, 0x7e, 0x83, 0xbe,
  0x42, 0x9d, 0x54, 0xbe, 0xa8, 0x6c, 0x87, 0xbd, 0xc1, 0xfd, 0x08, 0xbe,
  0xd0, 0x14, 0x71, 0x3d, 0x4d, 0xd9, 0x8d, 0x3e, 0x6b, 0xa0, 0x21, 0xbe,
  0xe3, 0xea, 0xb1, 0x3e, 0xd6, 0xaa, 0x0a, 0x3e, 0xee, 0x5b, 0x66, 0x3e,
  0x61, 0x36, 0x6c, 0xbe, 0x8c, 0xc4, 0xbe, 0xbd, 0x9d, 0x3f, 0x83, 0x3e,
  0x7c, 0x0e, 0xaa, 0x3d, 0x72, 0xc2, 0x95, 0xbe, 0xc0, 0xa9, 0xda, 0xbc,
  0x28, 0x52, 0x13, 0x3e, 0x10, 0xee, 0xd1, 0xbd, 0x5e, 0x11, 0x2d, 0xbe,
  0x29, 0x09, 0x93, 0xbe, 0x04, 0x13, 0xe0, 0x3d, 0xa8, 0x30, 0x71, 0xbd,
  0xd0, 0x1e, 0x66, 0xbe, 0xf0, 0x7c, 0x8f, 0xbc, 0x88, 0x0c, 0x8a, 0xbd,
  0xe0, 0x15, 0x5f, 0xbe, 0x2d, 0xcf, 0x0c, 0xbe, 0x23, 0x61, 0x95, 0x3e,
  0x06, 0x48, 0x66, 0xbe, 0x0c, 0x15, 0xae, 0xbd, 0xb1, 0x09, 0x82, 0x3e,
  0x46, 0x36, 0x6c, 0x3e, 0x4e, 0xda, 0x90, 0xbe, 0x2a, 0x60, 0x18, 0xbe,
  0x64, 0x65, 0xed, 0x3d, 0x24, 0xb4, 0xa6, 0xbd, 0xc8, 0xc7, 0xdb, 0xbd,
  0xa0, 0x33, 0xd5, 0x3c, 0x18, 0x43, 0xa0, 0x3d, 0x8f, 0x87, 0x36, 0xbe,
  0x70, 0x9d, 0x84, 0xbd, 0x9c, 0x19, 0x03, 0xbe, 0xeb, 0x6b, 0x98, 0xbe,
  0x49, 0xcb, 0x88, 0x3e, 0x8e, 0xdf, 0x5e, 0x3e, 0x9d, 0xfd, 0x82, 0x3e,
  0x30, 0x13, 0xb5, 0xbd, 0x30, 0x4b, 0x93, 0xbc, 0xc2, 0x69, 0x45, 0x3e,
  0x9c, 0x33, 0x3b, 0xbe, 0x98, 0xd9, 0x1c, 0xbd, 0xb1, 0x70, 0xa9, 0xbe,
  0x10, 0xc5, 0x8d, 0xbe, 0x62, 0x41, 0x4f, 0x3e, 0x6a, 0x88, 0x2f, 0x3e,
  0x5e, 0x0f, 0x69, 0x3e, 0xf4, 0xcc, 0x84, 0xbe, 0x25, 0x44, 0x87, 0xbe,
  0xa0, 0xeb, 0x7e, 0xbc, 0x02, 0x2b, 0x65, 0x3e, 0xb1, 0xd7, 0x93, 0x3e,
  0xfe, 0x6f, 0xb2, 0xbe, 0xde, 0x6b, 0x4c, 0x3e, 0x46, 0x08, 0xaf, 0xbe,
  0x2f, 0x5d, 0x9c, 0x3e, 0x3a, 0x71, 0x66, 0x3e, 0xca, 0xe0, 0x21, 0xbe,
  0x4e, 0xad, 0xdb, 0xbd, 0xd4, 0x6c, 0xbc, 0xbd, 0xa0, 0x23, 0x20, 0xbc,
  0x7f, 0x71, 0x49, 0xbe, 0x7c, 0xc5, 0xe3, 0x3d, 0x08, 0x3a, 0x20, 0x3d,
  0xf8, 0xcf, 0x49, 0x3d, 0xea, 0x00, 0x1a, 0x3e, 0x00, 0xdf, 0x89, 0xbe,
  0x54, 0x09, 0xb0, 0x3d, 0x25, 0xcb, 0x27, 0xbe, 0x31, 0x29, 0x93, 0xbe,
  0x7c, 0x8f, 0xd9, 0x3d, 0x8c, 0x04, 0x93, 0xbd, 0xb7, 0xec, 0xa6, 0xbe,
  0x23, 0x7a, 0x9f, 0xbe, 0xa6, 0xdc, 0x41, 0x3e, 0xde, 0x51, 0x70, 0xbe,
  0xe0, 0xfb, 0x91, 0xbd, 0x86, 0xe0, 0x08, 0x3e, 0xf2, 0xff, 0x6d, 0x3e,
  0x1f, 0x41, 0x91, 0x3e, 0xa8, 0x2e, 0x28, 0x3d, 0x11, 0x9e, 0xb0, 0x3e,
  0xe8, 0xf9, 0x8d, 0xbe, 0x83, 0x3e, 0x84, 0x3e, 0xdc, 0xa1, 0x8c, 0xbd,
  0x7d, 0xfe, 0xa5, 0xbe, 0xb2, 0xd9, 0x25, 0x3e, 0x4b, 0x4e, 0xae, 0x3e,
  0xf8, 0x99, 0xba, 0x3d, 0x90, 0xda, 0x56, 0x3d, 0x00, 0xbc, 0xad, 0x39,
  0xd0, 0x1d, 0x2e, 0xbd, 0xa6, 0x14, 0x4c, 0xbe, 0x54, 0x87, 0xe2, 0xbd,
  0x4c, 0x52, 0xab, 0x3d, 0xba, 0x1f, 0xdc, 0xbd, 0xc8, 0x9e, 0x15, 0xbe,
  0x16, 0x46, 0x94, 0xbe, 0x11, 0x7e, 0x06, 0xbe, 0x04, 0x8b, 0xa8, 0xbe,
  0xab, 0xbf, 0x87, 0xbe, 0x20, 0x14, 0x7d, 0xbd, 0xe9, 0x08, 0xb0, 0x3e,
  0x30, 0xfc, 0x3e, 0x3d, 0xb2, 0x97, 0x49, 0x3e, 0x46, 0x77, 0x69, 0xbe,
  0xf1, 0x31, 0x02, 0xbe, 0xee, 0xe0, 0x46, 0x3e, 0xe8, 0x7e, 0x33, 0x3d,
  0xae, 0xe5, 0x3d, 0xbe, 0x90, 0x5f, 0x9e, 0xbd, 0x6d, 0x40, 0x11, 0xbe,
  0x03, 0x9b, 0xa2, 0xbe, 0x06, 0x99, 0x55, 0x3e, 0x09, 0xc0, 0x85, 0x3e,
  0xd9, 0xac, 0x8c, 0x3e, 0x30, 0xbd, 0xcd, 0x3c, 0x1a, 0xc6, 0x7f, 0x3e,
  0xbc, 0xff, 0x49, 0xbe, 0x82, 0x8d, 0x74, 0xbe, 0xe8, 0xd3, 0x67, 0xbd,
  0x52, 0xc4, 0x12, 0x3e, 0x9a, 0x5b, 0xad, 0xbe, 0x64, 0x91, 0x15, 0xbe,
  0xce, 0x01, 0x11, 0x3e, 0x63, 0x87, 0x14, 0xbe, 0x4b, 0x3a, 0x88, 0x3e,
  0xbe, 0x38, 0xa7, 0xbe, 0x3a, 0x41, 0xad, 0xbe, 0x7d, 0x79, 0xa0, 0x3e,
  0x10, 0x4d, 0xd1, 0x3d, 0x73, 0x06, 0x98, 0x3e, 0xef, 0x1f, 0x92, 0x3e,
  0x60, 0xa7, 0x8d, 0xbe, 0x4f, 0x83, 0x9a, 0x3e, 0xb8, 0xd8, 0x11, 0x3e,
  0x5e, 0x1f, 0xd4, 0xbd, 0x20, 0x8b, 0x25, 0xbd, 0xed, 0x83, 0x81, 0xbe,
  0x54, 0x84, 0xff, 0xbd, 0x70, 0x16, 0x95, 0xbd, 0x57, 0x40, 0x90, 0x3e,
  0x00, 0x59, 0xb8, 0x3c, 0xa8, 0x80, 0xab, 0xbd, 0x0a, 0x19, 0x0e, 0x3e,
  0xd8, 0xd3, 0x43, 0xbd, 0x9d, 0xb4, 0x7e, 0xbe, 0x8e, 0x8d, 0x2b, 0x3e,
  0x40, 0x04, 0xfb, 0xbc, 0x5a, 0x70, 0x59, 0xbe, 0x8a, 0x73, 0x26, 0x3e,
  0xf8, 0x3b, 0xfc, 0x3d, 0x04, 0xbe, 0xd1, 0x3d, 0x10, 0x65, 0x34, 0xbd,
  0x80, 0x01, 0xb8, 0xbc, 0x50, 0x08, 0x2e, 0x3d, 0x17, 0x88, 0x9b, 0xbe,
  0xba, 0x81, 0x9b, 0xbe, 0x62, 0x6d, 0x7c, 0x3e, 0x4a, 0xa7, 0x72, 0x3e,
  0xd6, 0x80, 0x6a, 0x3e, 0xa8, 0x55, 0x0d, 0x3e, 0x04, 0xdf, 0x96, 0xbd,
  0x9e, 0xa4, 0x44, 0x3e, 0x45, 0xff, 0x9b, 0xbe, 0x3b, 0x21, 0xa3, 0x3e,
  0x6f, 0x4a, 0xa0, 0x3e, 0x92, 0x39, 0x6a, 0xbe, 0xe9, 0x35, 0xb0, 0xbe,
  0xf0, 0xbd, 0xee, 0xbd, 0x80, 0xeb, 0xb2, 0x3b, 0xee, 0x9d, 0x35, 0x3e,
  0x32, 0x29, 0x5e, 0x3e, 0x86, 0x03, 0x17, 0x3e, 0x59, 0x98, 0xab, 0x3e,
  0x6b, 0x22, 0x8b, 0x3e, 0x96, 0xa1, 0x6e, 0x3e, 0xe0, 0x86, 0x6e, 0xbc,
  0xa2, 0x3e, 0x9c, 0xbe, 0xd8, 0xac, 0x09, 0x3d, 0xb9, 0x74, 0x27, 0xbe,
  0xae, 0x03, 0x1e, 0x3e, 0x90, 0xea, 0x9a, 0xbd, 0xcf, 0x3f, 0xa6, 0x3e,
  0xc0, 0x10, 0xa9, 0x3c, 0x80, 0x7a, 0x09, 0xbc, 0xe0, 0x16, 0x06, 0xbe,
  0x4f, 0x3a, 0xab, 0x3e, 0xe0, 0x96, 0xa5, 0xbc, 0x46, 0x37, 0x12, 0x3e,
  0x40, 0x83, 0xc4, 0x3d, 0x57, 0xa1, 0x89, 0x3e, 0xa0, 0x1b, 0x7a, 0xbd,
  0xa5, 0x5b, 0x8a, 0x3e, 0x9f, 0xd4, 0x92, 0x3e, 0x85, 0xa5, 0x9f, 0x3e,
  0xc8, 0xd6, 0x83, 0xbd, 0x7a, 0x37, 0x11, 0x3e, 0x9e, 0x3b, 0x42, 0x3e,
  0x7e, 0xd7, 0x2c, 0x3e, 0xa2, 0x79, 0x9c, 0xbe, 0x41, 0xce, 0x99, 0x3e,
  0xd6, 0x53, 0x1c, 0x3e, 0x24, 0x3f, 0x9a, 0xbe, 0x28, 0x58, 0x11, 0x3e,
  0x08, 0x1d, 0x5e, 0xbd, 0x40, 0x14, 0xc2, 0xbb, 0x5e, 0x13, 0x6e, 0x3e,
  0x81, 0x48, 0x99, 0x3e, 0xdb, 0xc5, 0x89, 0xbe, 0x78, 0xf3, 0xcf, 0x3d,
  0x93, 0xb8, 0x6c, 0xbe, 0x25, 0xed, 0xa0, 0xbe, 0x2f, 0x28, 0xb1, 0x3e,
  0xa0, 0x77, 0xe1, 0x3d, 0xac, 0x6a, 0xf6, 0x3d, 0x4a, 0x32, 0x70, 0xbe,
  0x00, 0x57, 0x10, 0xbd, 0xe2, 0x56, 0x3e, 0x3e, 0xcb, 0xd6, 0xab, 0xbe,
  0xf4, 0x1a, 0xe9, 0xbd, 0x14, 0xdb, 0xe2, 0xbd, 0x46, 0x66, 0x1e, 0x3e,
  0x7c, 0x26, 0xaf, 0x3d, 0x7e, 0xfc, 0x59, 0xbe, 0x8a, 0x46, 0xa5, 0xbe,
  0xba, 0xc4, 0x07, 0xbe, 0xad, 0xfe, 0x49, 0xbe, 0xbc, 0xf2, 0xd0, 0xbd,
  0xe0, 0xdb, 0xe9, 0xbc, 0x32, 0xb8, 0x7e, 0x3e, 0xf2, 0x5f, 0x8b, 0xbe,
  0x54, 0xcc, 0x60, 0xbe, 0x76, 0xe2, 0x6d, 0x3e, 0x96, 0x42, 0x0a, 0x3e,
  0xc2, 0x9d, 0x1a, 0x3e, 0x41, 0xe4, 0x88, 0x3e, 0x9f, 0x85, 0x88, 0x3e,
  0xc8, 0xa2, 0x5c, 0xbe, 0xaa, 0x77, 0x83, 0xbe, 0x0a, 0x57, 0x4b, 0x3e,
  0xda, 0x98, 0x90, 0xbe, 0xd8, 0x0e, 0xa5, 0xbe, 0xca, 0xd6, 0xa7, 0xbe,
  0xc8, 0xb2, 0xb3, 0xbd, 0xea, 0x59, 0xac, 0xbe, 0x17, 0x13, 0xa2, 0x3e,
  0x3c, 0x87, 0x90, 0x3d, 0x4d, 0x40, 0x1c, 0xbe, 0x70, 0x95, 0x2c, 0x3d,
  0x21, 0xf2, 0x86, 0x3e, 0xf5, 0x41, 0x18, 0xbe, 0xfc, 0x2a, 0x87, 0xbd,
  0x65, 0xbc, 0x85, 0x3e, 0xeb, 0xb7, 0xac, 0xbe, 0xa0, 0xa0, 0xb2, 0xbc,
  0xcf, 0x48, 0x98, 0x3e, 0x09, 0x01, 0xad, 0xbe, 0x38, 0x1c, 0xb9, 0x3d,
  0xa0, 0xa2, 0x85, 0xbd, 0x96, 0x6c, 0x52, 0x3e, 0x59, 0xb3, 0x59, 0xbe,
  0x25, 0xd6, 0x99, 0xbe, 0x66, 0xa3, 0x2a, 0xbe, 0xa9, 0x58, 0x96, 0xbe,
  0x65, 0x4d, 0x09, 0xbe, 0x60, 0x4b, 0xb3, 0x3c, 0xf2, 0x86, 0x25, 0x3e,
  0xe2, 0x97, 0x7c, 0x3e, 0x43, 0x54, 0x99, 0x3e, 0x78, 0x61, 0x33, 0xbd,
  0x98, 0xb1, 0x7b, 0xbd, 0x80, 0x73, 0x94, 0x3b, 0xfe, 0x3c, 0x27, 0x3e,
  0xff, 0x5b, 0xa9, 0xbe, 0x00, 0x88, 0xf7, 0xba, 0x54, 0x12, 0x8d, 0xbd,
  0xc5, 0xe9, 0xb4, 0xbe, 0x76, 0xae, 0x3b, 0x3e, 0x3c, 0x5b, 0x9c, 0xbd,
  0x34, 0x48, 0xb7, 0x3d, 0x1e, 0xc1, 0x19, 0x3e, 0x93, 0x1d, 0x44, 0xbe,
  0x88, 0xf1, 0x23, 0x3d, 0xc9, 0x7a, 0x80, 0xbe, 0x20, 0x14, 0x59, 0x3d,
  0x54, 0xff, 0x75, 0xbe, 0xc7, 0x18, 0x81, 0xbe, 0xc5, 0x21, 0x84, 0x3e,
  0x1a, 0xb3, 0x34, 0x3e, 0xb7, 0x34, 0xb0, 0xbe, 0xc0, 0x00, 0x0b, 0x3c,
  0x5e, 0x73, 0x57, 0xbe, 0x3c, 0xb8, 0x90, 0xbd, 0xb0, 0x12, 0x83, 0xbc,
  0x78, 0x50, 0x76, 0xbe, 0x20, 0x71, 0x1f, 0xbd, 0x9e, 0xb3, 0x0d, 0xbe,
  0x5a, 0xa7, 0x5d, 0xbe, 0x45, 0x20, 0x81, 0x3e, 0x6c, 0x8a, 0x94, 0xbe,
  0x8c, 0x9f, 0x0a, 0x3e, 0x69, 0xf0, 0xa3, 0xbe, 0x9f, 0x72, 0x1b, 0xbe,
  0x8f, 0x0e, 0xa9, 0x3e, 0xd9, 0xd7, 0xa7, 0x3e, 0x80, 0xeb, 0xa2, 0xbd,
  0xdd, 0xd3, 0x8d, 0x3e, 0x44, 0x0e, 0x84, 0xbe, 0xfd, 0xf9, 0x8f, 0x3e,
  0x3e, 0x48, 0x3b, 0x3e, 0x20, 0x6d, 0x7b, 0xbe, 0x40, 0xcb, 0xf1, 0xbc,
  0x60, 0xc3, 0x07, 0xbc, 0x0b, 0xf1, 0xa1, 0x3e, 0x07, 0xb1, 0x2b, 0xbe,
  0x5c, 0xb4, 0xab, 0xbd, 0xa7, 0x4f, 0xa1, 0x3e, 0xc9, 0x25, 0x80, 0x3e,
  0x18, 0xda, 0x00, 0xbd, 0x20, 0xd7, 0xb5, 0xbc, 0x00, 0x00, 0x06, 0x00,
  0x08, 0x00, 0x04, 0x00, 0x06, 0x00, 0x00, 0x00, 0x04, 0x00, 0x00, 0x00,
  0x40, 0x00, 0x00, 0x00, 0x52, 0x27, 0x02, 0x3f, 0xcc, 0x2c, 0xb8, 0x3e,
  0x68, 0x82, 0xc3, 0x3d, 0x94, 0xbf, 0xc1, 0xbe, 0xfe, 0x66, 0xb0, 0xbe,
  0x22, 0xe7, 0xba, 0x3e, 0x94, 0x5f, 0x57, 0x3e, 0xd0, 0x02, 0x8d, 0x3d,
  0x2c, 0x8b, 0x3f, 0x3e, 0xc4, 0x23, 0xb6, 0x3e, 0xb1, 0x58, 0xbc, 0xbe,
  0x40, 0xc0, 0x5b, 0x3e, 0xf8, 0xec, 0xb2, 0x3d, 0x9a, 0x2d, 0x14, 0x3f,
  0xfc, 0xa4, 0x73, 0x3e, 0xd0, 0x3d, 0xf3, 0x3e, 0x14, 0xfc, 0xff, 0xff,
  0x18, 0xfc, 0xff, 0xff, 0x0f, 0x00, 0x00, 0x00, 0x4d, 0x4c, 0x49, 0x52,
  0x20, 0x43, 0x6f, 0x6e, 0x76, 0x65, 0x72, 0x74, 0x65, 0x64, 0x2e, 0x00,
  0x01, 0x00, 0x00, 0x00, 0x14, 0x00, 0x00, 0x00, 0x00, 0x00, 0x0e, 0x00,
  0x18, 0x00, 0x14, 0x00, 0x10, 0x00, 0x0c, 0x00, 0x08, 0x00, 0x04, 0x00,
  0x0e, 0x00, 0x00, 0x00, 0x14, 0x00, 0x00, 0x00, 0x1c, 0x00, 0x00, 0x00,
  0xd8, 0x00, 0x00, 0x00, 0xdc, 0x00, 0x00, 0x00, 0xe0, 0x00, 0x00, 0x00,
  0x04, 0x00, 0x00, 0x00, 0x6d, 0x61, 0x69, 0x6e, 0x00, 0x00, 0x00, 0x00,
  0x03, 0x00, 0x00, 0x00, 0x80, 0x00, 0x00, 0x00, 0x38, 0x00, 0x00, 0x00,
  0x04, 0x00, 0x00, 0x00, 0x9a, 0xff, 0xff, 0xff, 0x10, 0x00, 0x00, 0x00,
  0x00, 0x00, 0x00, 0x08, 0x0c, 0x00, 0x00, 0x00, 0x10, 0x00, 0x00, 0x00,
  0x90, 0xfc, 0xff, 0xff, 0x01, 0x00, 0x00, 0x00, 0x06, 0x00, 0x00, 0x00,
  0x03, 0x00, 0x00, 0x00, 0x05, 0x00, 0x00, 0x00, 0x01, 0x00, 0x00, 0x00,
  0xff, 0xff, 0xff, 0xff, 0xca, 0xff, 0xff, 0xff, 0x10, 0x00, 0x00, 0x00,
  0x00, 0x00, 0x00, 0x08, 0x10, 0x00, 0x00, 0x00, 0x14, 0x00, 0x00, 0x00,
  0xba, 0xff, 0xff, 0xff, 0x00, 0x00, 0x00, 0x01, 0x01, 0x00, 0x00, 0x00,
  0x05, 0x00, 0x00, 0x00, 0x03, 0x00, 0x00, 0x00, 0x04, 0x00, 0x00, 0x00,
  0x02, 0x00, 0x00, 0x00, 0xff, 0xff, 0xff, 0xff, 0x00, 0x00, 0x0e, 0x00,
  0x16, 0x00, 0x00, 0x00, 0x10, 0x00, 0x0c, 0x00, 0x0b, 0x00, 0x04, 0x00,
  0x0e, 0x00, 0x00, 0x00, 0x18, 0x00, 0x00, 0x00, 0x00, 0x00, 0x00, 0x08,
  0x18, 0x00, 0x00, 0x00, 0x1c, 0x00, 0x00, 0x00, 0x00, 0x00, 0x06, 0x00,
  0x08, 0x00, 0x07, 0x00, 0x06, 0x00, 0x00, 0x00, 0x00, 0x00, 0x00, 0x01,
  0x01, 0x00, 0x00, 0x00, 0x04, 0x00, 0x00, 0x00, 0x03, 0x00, 0x00, 0x00,
  0x00, 0x00, 0x00, 0x00, 0x03, 0x00, 0x00, 0x00, 0xff, 0xff, 0xff, 0xff,
  0x01, 0x00, 0x00, 0x00, 0x06, 0x00, 0x00, 0x00, 0x01, 0x00, 0x00, 0x00,
  0x00, 0x00, 0x00, 0x00, 0x07, 0x00, 0x00, 0x00, 0x98, 0x02, 0x00, 0x00,
  0x40, 0x02, 0x00, 0x00, 0xe8, 0x01, 0x00, 0x00, 0x98, 0x01, 0x00, 0x00,
  0xfc, 0x00, 0x00, 0x00, 0x60, 0x00, 0x00, 0x00, 0x04, 0x00, 0x00, 0x00,
  0x9a, 0xfd, 0xff, 0xff, 0x00, 0x00, 0x00, 0x01, 0x14, 0x00, 0x00, 0x00,
  0x1c, 0x00, 0x00, 0x00, 0x1c, 0x00, 0x00, 0x00, 0x07, 0x00, 0x00, 0x00,
  0x34, 0x00, 0x00, 0x00, 0x02, 0x00, 0x00, 0x00, 0xff, 0xff, 0xff, 0xff,
  0x01, 0x00, 0x00, 0x00, 0x84, 0xfd, 0xff, 0xff, 0x1b, 0x00, 0x00, 0x00,
  0x53, 0x74, 0x61, 0x74, 0x65, 0x66, 0x75, 0x6c, 0x50, 0x61, 0x72, 0x74,
  0x69, 0x74, 0x69, 0x6f, 0x6e, 0x65, 0x64, 0x43, 0x61, 0x6c, 0x6c, 0x5f,
  0x31, 0x3a, 0x30, 0x00, 0x02, 0x00, 0x00, 0x00, 0x01, 0x00, 0x00, 0x00,
  0x01, 0x00, 0x00, 0x00, 0xf2, 0xfd, 0xff, 0xff, 0x00, 0x00, 0x00, 0x01,
  0x14, 0x00, 0x00, 0x00, 0x1c, 0x00, 0x00, 0x00, 0x1c, 0x00, 0x00, 0x00,
  0x06, 0x00, 0x00, 0x00, 0x74, 0x00, 0x00, 0x00, 0x02, 0x00, 0x00, 0x00,
  0xff, 0xff, 0xff, 0xff, 0x10, 0x00, 0x00, 0x00, 0xdc, 0xfd, 0xff, 0xff,
  0x5a, 0x00, 0x00, 0x00, 0x73, 0x65, 0x71, 0x75, 0x65, 0x6e, 0x74, 0x69,
  0x61, 0x6c, 0x5f, 0x31, 0x5f, 0x31, 0x2f, 0x64, 0x65, 0x6e, 0x73, 0x65,
  0x5f, 0x34, 0x5f, 0x31, 0x2f, 0x4d, 0x61, 0x74, 0x4d, 0x75, 0x6c, 0x3b,
  0x73, 0x65, 0x71, 0x75, 0x65, 0x6e, 0x74, 0x69, 0x61, 0x6c, 0x5f, 0x31,
  0x5f, 0x31, 0x2f, 0x64, 0x65, 0x6e, 0x73, 0x65, 0x5f, 0x34, 0x5f, 0x31,
  0x2f, 0x52, 0x65, 0x6c, 0x75, 0x3b, 0x73, 0x65, 0x71, 0x75, 0x65, 0x6e,
  0x74, 0x69, 0x61, 0x6c, 0x5f, 0x31, 0x5f, 0x31, 0x2f, 0x64, 0x65, 0x6e,
  0x73, 0x65, 0x5f, 0x34, 0x5f, 0x31, 0x2f, 0x41, 0x64, 0x64, 0x00, 0x00,
  0x02, 0x00, 0x00, 0x00, 0x01, 0x00, 0x00, 0x00, 0x10, 0x00, 0x00, 0x00,
  0x8a, 0xfe, 0xff, 0xff, 0x00, 0x00, 0x00, 0x01, 0x14, 0x00, 0x00, 0x00,
  0x1c, 0x00, 0x00, 0x00, 0x1c, 0x00, 0x00, 0x00, 0x05, 0x00, 0x00, 0x00,
  0x74, 0x00, 0x00, 0x00, 0x02, 0x00, 0x00, 0x00, 0xff, 0xff, 0xff, 0xff,
  0x20, 0x00, 0x00, 0x00, 0x74, 0xfe, 0xff, 0xff, 0x5a, 0x00, 0x00, 0x00,
  0x73, 0x65, 0x71, 0x75, 0x65, 0x6e, 0x74, 0x69, 0x61, 0x6c, 0x5f, 0x31,
  0x5f, 0x31, 0x2f, 0x64, 0x65, 0x6e, 0x73, 0x65, 0x5f, 0x33, 0x5f, 0x31,
  0x2f, 0x4d, 0x61, 0x74, 0x4d, 0x75, 0x6c, 0x3b, 0x73, 0x65, 0x71, 0x75,
  0x65, 0x6e, 0x74, 0x69, 0x61, 0x6c, 0x5f, 0x31, 0x5f, 0x31, 0x2f, 0x64,
  0x65, 0x6e, 0x73, 0x65, 0x5f, 0x33, 0x5f, 0x31, 0x2f, 0x52, 0x65, 0x6c,
  0x75, 0x3b, 0x73, 0x65, 0x71, 0x75, 0x65, 0x6e, 0x74, 0x69, 0x61, 0x6c,
  0x5f, 0x31, 0x5f, 0x31, 0x2f, 0x64, 0x65, 0x6e, 0x73, 0x65, 0x5f, 0x33,
  0x5f, 0x31, 0x2f, 0x41, 0x64, 0x64, 0x00, 0x00, 0x02, 0x00, 0x00, 0x00,
  0x01, 0x00, 0x00, 0x00, 0x20, 0x00, 0x00, 0x00, 0x76, 0xff, 0xff, 0xff,
  0x00, 0x00, 0x00, 0x01, 0x10, 0x00, 0x00, 0x00, 0x10, 0x00, 0x00, 0x00,
  0x04, 0x00, 0x00, 0x00, 0x2c, 0x00, 0x00, 0x00, 0xfc, 0xfe, 0xff, 0xff,
  0x1f, 0x00, 0x00, 0x00, 0x73, 0x65, 0x71, 0x75, 0x65, 0x6e, 0x74, 0x69,
  0x61, 0x6c, 0x5f, 0x31, 0x5f, 0x31, 0x2f, 0x64, 0x65, 0x6e, 0x73, 0x65,
  0x5f, 0x33, 0x5f, 0x31, 0x2f, 0x4d, 0x61, 0x74, 0x4d, 0x75, 0x6c, 0x00,
  0x02, 0x00, 0x00, 0x00, 0x20, 0x00, 0x00, 0x00, 0x10, 0x00, 0x00, 0x00,
  0xc2, 0xff, 0xff, 0xff, 0x00, 0x00, 0x00, 0x01, 0x10, 0x00, 0x00, 0x00,
  0x10, 0x00, 0x00, 0x00, 0x03, 0x00, 0x00, 0x00, 0x1c, 0x00, 0x00, 0x00,
  0x48, 0xff, 0xff, 0xff, 0x0f, 0x00, 0x00, 0x00, 0x61, 0x72, 0x69, 0x74,
  0x68, 0x2e, 0x63, 0x6f, 0x6e, 0x73, 0x74, 0x61, 0x6e, 0x74, 0x31, 0x00,
  0x02, 0x00, 0x00, 0x00, 0x10, 0x00, 0x00, 0x00, 0x20, 0x00, 0x00, 0x00,
  0x00, 0x00, 0x16, 0x00, 0x18, 0x00, 0x14, 0x00, 0x00, 0x00, 0x10, 0x00,
  0x0c, 0x00, 0x08, 0x00, 0x00, 0x00, 0x00, 0x00, 0x00, 0x00, 0x07, 0x00,
  0x16, 0x00, 0x00, 0x00, 0x00, 0x00, 0x00, 0x01, 0x10, 0x00, 0x00, 0x00,
  0x10, 0x00, 0x00, 0x00, 0x02, 0x00, 0x00, 0x00, 0x1c, 0x00, 0x00, 0x00,
  0x9c, 0xff, 0xff, 0xff, 0x0e, 0x00, 0x00, 0x00, 0x61, 0x72, 0x69, 0x74,
  0x68, 0x2e, 0x63, 0x6f, 0x6e, 0x73, 0x74, 0x61, 0x6e, 0x74, 0x00, 0x00,
  0x02, 0x00, 0x00, 0x00, 0x01, 0x00, 0x00, 0x00, 0x10, 0x00, 0x00, 0x00,
  0x00, 0x00, 0x16, 0x00, 0x1c, 0x00, 0x18, 0x00, 0x00, 0x00, 0x14, 0x00,
  0x10, 0x00, 0x0c, 0x00, 0x00, 0x00, 0x00, 0x00, 0x08, 0x00, 0x07, 0x00,
  0x16, 0x00, 0x00, 0x00, 0x00, 0x00, 0x00, 0x01, 0x14, 0x00, 0x00, 0x00,
  0x20, 0x00, 0x00, 0x00, 0x20, 0x00, 0x00, 0x00, 0x01, 0x00, 0x00, 0x00,
  0x40, 0x00, 0x00, 0x00, 0x02, 0x00, 0x00, 0x00, 0xff, 0xff, 0xff, 0xff,
  0x10, 0x00, 0x00, 0x00, 0x04, 0x00, 0x04, 0x00, 0x04, 0x00, 0x00, 0x00,
  0x20, 0x00, 0x00, 0x00, 0x73, 0x65, 0x72, 0x76, 0x69, 0x6e, 0x67, 0x5f,
  0x64, 0x65, 0x66, 0x61, 0x75, 0x6c, 0x74, 0x5f, 0x6b, 0x65, 0x72, 0x61,
  0x73, 0x5f, 0x74, 0x65, 0x6e, 0x73, 0x6f, 0x72, 0x5f, 0x34, 0x3a, 0x30,
  0x00, 0x00, 0x00, 0x00, 0x02, 0x00, 0x00, 0x00, 0x01, 0x00, 0x00, 0x00,
  0x10, 0x00, 0x00, 0x00, 0x01, 0x00, 0x00, 0x00, 0x10, 0x00, 0x00, 0x00,
  0x0c, 0x00, 0x0c, 0x00, 0x0b, 0x00, 0x00, 0x00, 0x00, 0x00, 0x04, 0x00,
  0x0c, 0x00, 0x00, 0x00, 0x09, 0x00, 0x00, 0x00, 0x00, 0x00, 0x00, 0x09
 
};

const int Primeiro_float32_len = 5760;
