#ifdef __has_attribute
#define HAVE_ATTRIBUTE(x) __has_attribute(x)
#else
#define HAVE_ATTRIBUTE(x) 0
#endif
#if HAVE_ATTRIBUTE(aligned) || (defined(__GNUC__) && !defined(__clang__))
#define DATA_ALIGN_ATTRIBUTE __attribute__((aligned(4)))
#else
#define DATA_ALIGN_ATTRIBUTE
#endif
    
const unsigned char Primeiro_float32[]  DATA_ALIGN_ATTRIBUTE = {
  0x1c, 0x00, 0x00, 0x00, 0x54, 0x46, 0x4c, 0x33, 0x14, 0x00, 0x20, 0x00,
  0x1c, 0x00, 0x18, 0x00, 0x14, 0x00, 0x10, 0x00, 0x0c, 0x00, 0x00, 0x00,
  0x08, 0x00, 0x04, 0x00, 0x14, 0x00, 0x00, 0x00, 0x1c, 0x00, 0x00, 0x00,
  0x98, 0x00, 0x00, 0x00, 0xf0, 0x00, 0x00, 0x00, 0xb0, 0x0e, 0x00, 0x00,
  0xc0, 0x0e, 0x00, 0x00, 0xe4, 0x14, 0x00, 0x00, 0x03, 0x00, 0x00, 0x00,
  0x01, 0x00, 0x00, 0x00, 0x10, 0x00, 0x00, 0x00, 0x00, 0x00, 0x0a, 0x00,
  0x10, 0x00, 0x0c, 0x00, 0x08, 0x00, 0x04, 0x00, 0x0a, 0x00, 0x00, 0x00,
  0x0c, 0x00, 0x00, 0x00, 0x1c, 0x00, 0x00, 0x00, 0x3c, 0x00, 0x00, 0x00,
  0x0f, 0x00, 0x00, 0x00, 0x73, 0x65, 0x72, 0x76, 0x69, 0x6e, 0x67, 0x5f,
  0x64, 0x65, 0x66, 0x61, 0x75, 0x6c, 0x74, 0x00, 0x01, 0x00, 0x00, 0x00,
  0x04, 0x00, 0x00, 0x00, 0x90, 0xff, 0xff, 0xff, 0x0c, 0x00, 0x00, 0x00,
  0x04, 0x00, 0x00, 0x00, 0x08, 0x00, 0x00, 0x00, 0x6f, 0x75, 0x74, 0x70,
  0x75, 0x74, 0x5f, 0x30, 0x00, 0x00, 0x00, 0x00, 0x01, 0x00, 0x00, 0x00,
  0x04, 0x00, 0x00, 0x00, 0xfe, 0xf1, 0xff, 0xff, 0x04, 0x00, 0x00, 0x00,
  0x0c, 0x00, 0x00, 0x00, 0x6b, 0x65, 0x72, 0x61, 0x73, 0x5f, 0x74, 0x65,
  0x6e, 0x73, 0x6f, 0x72, 0x00, 0x00, 0x00, 0x00, 0x02, 0x00, 0x00, 0x00,
  0x34, 0x00, 0x00, 0x00, 0x04, 0x00, 0x00, 0x00, 0xdc, 0xff, 0xff, 0xff,
  0x0f, 0x00, 0x00, 0x00, 0x04, 0x00, 0x00, 0x00, 0x13, 0x00, 0x00, 0x00,
  0x43, 0x4f, 0x4e, 0x56, 0x45, 0x52, 0x53, 0x49, 0x4f, 0x4e, 0x5f, 0x4d,
  0x45, 0x54, 0x41, 0x44, 0x41, 0x54, 0x41, 0x00, 0x08, 0x00, 0x0c, 0x00,
  0x08, 0x00, 0x04, 0x00, 0x08, 0x00, 0x00, 0x00, 0x0e, 0x00, 0x00, 0x00,
  0x04, 0x00, 0x00, 0x00, 0x13, 0x00, 0x00, 0x00, 0x6d, 0x69, 0x6e, 0x5f,
  0x72, 0x75, 0x6e, 0x74, 0x69, 0x6d, 0x65, 0x5f, 0x76, 0x65, 0x72, 0x73,
  0x69, 0x6f, 0x6e, 0x00, 0x10, 0x00, 0x00, 0x00, 0xbc, 0x0d, 0x00, 0x00,
  0xb4, 0x0d, 0x00, 0x00, 0x84, 0x0d, 0x00, 0x00, 0x6c, 0x0b, 0x00, 0x00,
  0x5c, 0x03, 0x00, 0x00, 0x48, 0x03, 0x00, 0x00, 0x18, 0x03, 0x00, 0x00,
  0xc8, 0x02, 0x00, 0x00, 0x38, 0x02, 0x00, 0x00, 0xa8, 0x00, 0x00, 0x00,
  0xa0, 0x00, 0x00, 0x00, 0x98, 0x00, 0x00, 0x00, 0x90, 0x00, 0x00, 0x00,
  0x88, 0x00, 0x00, 0x00, 0x68, 0x00, 0x00, 0x00, 0x04, 0x00, 0x00, 0x00,
  0xba, 0xf2, 0xff, 0xff, 0x04, 0x00, 0x00, 0x00, 0x54, 0x00, 0x00, 0x00,
  0x0c, 0x00, 0x00, 0x00, 0x08, 0x00, 0x0e, 0x00, 0x08, 0x00, 0x04, 0x00,
  0x08, 0x00, 0x00, 0x00, 0x10, 0x00, 0x00, 0x00, 0x24, 0x00, 0x00, 0x00,
  0x00, 0x00, 0x06, 0x00, 0x08, 0x00, 0x04, 0x00, 0x06, 0x00, 0x00, 0x00,
  0x04, 0x00, 0x00, 0x00, 0x00, 0x00, 0x00, 0x00, 0x00, 0x00, 0x0a, 0x00,
  0x10, 0x00, 0x0c, 0x00, 0x08, 0x00, 0x04, 0x00, 0x0a, 0x00, 0x00, 0x00,
  0x01, 0x00, 0x00, 0x00, 0x02, 0x00, 0x00, 0x00, 0x04, 0x00, 0x00, 0x00,
  0x06, 0x00, 0x00, 0x00, 0x32, 0x2e, 0x31, 0x36, 0x2e, 0x31, 0x00, 0x00,
  0x1a, 0xf3, 0xff, 0xff, 0x04, 0x00, 0x00, 0x00, 0x10, 0x00, 0x00, 0x00,
  0x31, 0x2e, 0x35, 0x2e, 0x30, 0x00, 0x00, 0x00, 0x00, 0x00, 0x00, 0x00,
  0x00, 0x00, 0x00, 0x00, 0xf8, 0xec, 0xff, 0xff, 0xfc, 0xec, 0xff, 0xff,
  0x00, 0xed, 0xff, 0xff, 0x04, 0xed, 0xff, 0xff, 0x46, 0xf3, 0xff, 0xff,
  0x04, 0x00, 0x00, 0x00, 0x80, 0x01, 0x00, 0x00, 0x40, 0xd4, 0x1d, 0xbe,
  0x72, 0x93, 0xb6, 0x3d, 0x4f, 0x4f, 0x13, 0x3e, 0x91, 0xad, 0x98, 0x3e,
  0x84, 0x62, 0x17, 0x3f, 0x1f, 0xc1, 0x2b, 0x3f, 0x04, 0x67, 0xf5, 0xbd,
  0xa7, 0x73, 0xde, 0xbd, 0x70, 0x5c, 0x9d, 0x3e, 0x57, 0x48, 0x25, 0x3f,
  0xe7, 0x12, 0x58, 0x3d, 0x9a, 0xca, 0xa2, 0x3d, 0xfe, 0xc3, 0x0b, 0x3f,
  0x44, 0x19, 0x97, 0x3e, 0xdd, 0x16, 0x24, 0x3f, 0x94, 0xc5, 0x26, 0x3e,
  0x2f, 0x22, 0x0e, 0xbe, 0x11, 0x0a, 0x30, 0x3f, 0xcf, 0x36, 0x24, 0xa9,
  0x77, 0x0e, 0xaa, 0xb6, 0x57, 0x80, 0x96, 0xbb, 0x08, 0xd1, 0xac, 0xbc,
  0xd8, 0xb7, 0x7b, 0x38, 0x71, 0x7f, 0xa7, 0xaa, 0x9e, 0xd4, 0x19, 0x3f,
  0x62, 0xff, 0x26, 0xbe, 0xd7, 0x4e, 0xb7, 0x3e, 0x8b, 0x8b, 0x87, 0xbe,
  0xa5, 0x3a, 0x9e, 0xbe, 0x1b, 0xec, 0x77, 0x3e, 0x7b, 0x37, 0xdb, 0x3c,
  0xcf, 0x22, 0xe4, 0xbd, 0x1f, 0xa9, 0x26, 0x3f, 0x27, 0xd8, 0xad, 0x3e,
  0xa0, 0x62, 0xd4, 0x3e, 0x67, 0x74, 0xc6, 0xbd, 0x14, 0x3f, 0x9f, 0x22,
  0x03, 0x20, 0x99, 0xba, 0x5b, 0xe1, 0x7f, 0xbb, 0x7c, 0x9e, 0x46, 0xbc,
  0x79, 0x0f, 0x94, 0xbc, 0x69, 0xe2, 0x48, 0xbc, 0x92, 0xa3, 0x9a, 0xbe,
  0xd1, 0x4e, 0xb9, 0x3e, 0x48, 0xa6, 0x98, 0xbe, 0x78, 0x69, 0x88, 0xb8,
  0x41, 0xa2, 0xe1, 0x21, 0xea, 0xbf, 0x68, 0xb7, 0x4d, 0x46, 0xef, 0xbb,
  0xbf, 0x32, 0xcc, 0xbc, 0xbc, 0xd3, 0x07, 0x3c, 0xac, 0x4e, 0xda, 0x30,
  0x74, 0x74, 0x22, 0xbb, 0x95, 0x01, 0x0b, 0xbc, 0xc4, 0x8b, 0x23, 0x3f,
  0x12, 0x85, 0xfc, 0x3d, 0xbe, 0xbc, 0xef, 0x3e, 0xa7, 0x75, 0x85, 0x3e,
  0xbe, 0xd1, 0xdd, 0x3e, 0xd5, 0x39, 0x4a, 0x3e, 0xb9, 0x8a, 0xd6, 0x3c,
  0xf4, 0xc6, 0xf2, 0x3e, 0x40, 0x7a, 0xbf, 0x3e, 0x98, 0xfe, 0x2b, 0x29,
  0xce, 0xa1, 0xd0, 0xbc, 0x8d, 0x7a, 0xa3, 0xbb, 0x5e, 0x2e, 0x9f, 0x3d,
  0x73, 0x34, 0x0d, 0x3f, 0x05, 0xdf, 0xba, 0x3d, 0x46, 0xcd, 0x4c, 0xbc,
  0xaf, 0xef, 0x91, 0xb9, 0x50, 0x77, 0x1d, 0xbc, 0x62, 0x30, 0x82, 0xbe,
  0x29, 0xf2, 0x5d, 0xbe, 0x6d, 0x32, 0x0c, 0x3f, 0x61, 0x9f, 0xca, 0x3e,
  0xa7, 0xc4, 0x9a, 0x3e, 0xc0, 0x2e, 0xce, 0x3e, 0x68, 0xed, 0xdd, 0x3e,
  0xcc, 0x25, 0x9c, 0x3e, 0xd5, 0x23, 0x1f, 0x3f, 0xf6, 0x6f, 0x00, 0xbe,
  0xde, 0x34, 0x03, 0x3f, 0x0d, 0x65, 0xcc, 0x3e, 0x96, 0x12, 0x48, 0x3d,
  0x8f, 0xa9, 0x0d, 0x3f, 0x52, 0x04, 0x50, 0x3e, 0x4a, 0x06, 0xac, 0xbc,
  0x90, 0xef, 0x4d, 0x39, 0xb2, 0xd1, 0x82, 0x3d, 0x1f, 0x23, 0x24, 0x3e,
  0xe2, 0x66, 0x6e, 0x3e, 0x5f, 0x0b, 0x1e, 0x3f, 0xe3, 0x28, 0xd5, 0x27,
  0xc9, 0x30, 0xac, 0xba, 0x46, 0x17, 0xa8, 0xba, 0xd2, 0xf4, 0xff, 0xff,
  0x04, 0x00, 0x00, 0x00, 0x80, 0x00, 0x00, 0x00, 0xf4, 0x02, 0xfa, 0xbd,
  0x58, 0x2b, 0x89, 0x3e, 0xa9, 0xc3, 0x32, 0x3c, 0x95, 0xc1, 0x93, 0x3e,
  0x31, 0x75, 0x86, 0x3e, 0x49, 0x9e, 0x91, 0x3e, 0x00, 0x00, 0x00, 0x00,
  0x00, 0xf2, 0x5c, 0xbc, 0xd7, 0x3a, 0x80, 0x3e, 0x1c, 0x14, 0xcb, 0xbc,
  0xae, 0x75, 0x96, 0x3e, 0xc8, 0x54, 0x89, 0x3e, 0x00, 0x00, 0x00, 0x00,
  0x8d, 0x14, 0x56, 0xbc, 0x26, 0xd1, 0xdb, 0xbb, 0x00, 0x00, 0x00, 0x00,
  0xaf, 0x78, 0xf9, 0xbb, 0x00, 0x00, 0x00, 0x00, 0xfb, 0xc6, 0x86, 0x3e,
  0x3a, 0xdc, 0x84, 0x3e, 0x87, 0x24, 0x95, 0x3e, 0x00, 0x00, 0x00, 0x00,
  0xc1, 0x41, 0x60, 0x3e, 0x00, 0x00, 0x00, 0x00, 0xf0, 0x82, 0x83, 0x3d,
  0x91, 0x01, 0x81, 0x3e, 0xfa, 0x85, 0x92, 0x3e, 0xc5, 0x41, 0x14, 0x3e,
  0x32, 0xd3, 0x92, 0x3e, 0xb3, 0x63, 0x5a, 0xbd, 0xb8, 0x5c, 0x86, 0x3e,
  0x00, 0x00, 0x00, 0x00, 0x5e, 0xf5, 0xff, 0xff, 0x04, 0x00, 0x00, 0x00,
  0x40, 0x00, 0x00, 0x00, 0x00, 0x00, 0x00, 0x00, 0x98, 0xb1, 0x3d, 0x3e,
  0x88, 0xd2, 0x9c, 0xbc, 0x00, 0x00, 0x00, 0x00, 0x0b, 0x39, 0x84, 0x3e,
  0xe4, 0x61, 0x64, 0x3e, 0x00, 0x00, 0x00, 0x00, 0x4f, 0xe1, 0x8a, 0x3e,
  0xc8, 0x34, 0x06, 0x3e, 0x00, 0x00, 0x00, 0x00, 0x76, 0x06, 0x9b, 0xbc,
  0x18, 0xc7, 0x6d, 0x3e, 0x00, 0x00, 0x00, 0x00, 0xea, 0xa5, 0x27, 0xbd,
  0xa9, 0x49, 0x6a, 0x3e, 0xe3, 0x38, 0x3d, 0xbc, 0xaa, 0xf5, 0xff, 0xff,
  0x04, 0x00, 0x00, 0x00, 0x20, 0x00, 0x00, 0x00, 0x00, 0x00, 0x00, 0x00,
  0xc4, 0xb8, 0xa7, 0xbd, 0xd4, 0x34, 0xaf, 0xbb, 0xf1, 0xe4, 0xbd, 0xbc,
  0x7e, 0x81, 0xa3, 0xbd, 0x46, 0x87, 0x8e, 0xbc, 0xfe, 0x14, 0x41, 0x3e,
  0x64, 0xc8, 0x1a, 0xbd, 0xd6, 0xf5, 0xff, 0xff, 0x04, 0x00, 0x00, 0x00,
  0x04, 0x00, 0x00, 0x00, 0xbc, 0x36, 0x30, 0x3e, 0xe6, 0xf5, 0xff, 0xff,
  0x04, 0x00, 0x00, 0x00, 0x00, 0x08, 0x00, 0x00, 0x64, 0xe2, 0x53, 0xa1,
  0xca, 0xff, 0x51, 0xac, 0x91, 0xf8, 0xc5, 0x20, 0x3f, 0xcd, 0xfa, 0xba,
  0x9b, 0xc9, 0x9f, 0xb0, 0x4a, 0xc9, 0x64, 0x3b, 0x38, 0x24, 0x39, 0xa5,
  0xa5, 0x12, 0xc3, 0x22, 0xf8, 0x9e, 0x36, 0xa2, 0xa2, 0x67, 0x29, 0x22,
  0x1a, 0x39, 0x2d, 0xbb, 0x42, 0x6e, 0x16, 0x25, 0x6e, 0xc2, 0xf6, 0xba,
  0x59, 0xae, 0x55, 0xad, 0x39, 0xd1, 0x1b, 0xa2, 0xaf, 0xf6, 0xbd, 0x20,
  0x78, 0x49, 0xc3, 0xb9, 0x12, 0xa1, 0x51, 0x29, 0x00, 0x78, 0x70, 0xbb,
  0xe5, 0x0d, 0x76, 0xba, 0x0e, 0x16, 0xa6, 0xa1, 0xa8, 0x54, 0xa3, 0x3b,
  0x33, 0x38, 0x76, 0x39, 0x91, 0x54, 0xf1, 0xb9, 0xd0, 0xa2, 0x08, 0xbc,
  0x59, 0x24, 0x89, 0xbb, 0x66, 0x5b, 0x12, 0xbc, 0xcf, 0xd2, 0xd1, 0xbb,
  0x52, 0x59, 0x13, 0x22, 0xff, 0x77, 0x10, 0x39, 0x2a, 0xbe, 0xb8, 0x22,
  0x0a, 0xa6, 0xae, 0x3b, 0x5d, 0xe1, 0x6f, 0xbe, 0xa1, 0xff, 0xa3, 0x3e,
  0xb4, 0xae, 0xa3, 0x3d, 0x6f, 0xcd, 0xb4, 0x3e, 0xb7, 0x92, 0x4e, 0x3e,
  0xe7, 0x97, 0x8a, 0x3e, 0xce, 0xf3, 0x2a, 0x31, 0x3e, 0xfd, 0x32, 0xba,
  0xf7, 0x6a, 0xe7, 0x3e, 0xb5, 0xd7, 0x93, 0x3c, 0x6e, 0xaa, 0x00, 0x3f,
  0x17, 0x96, 0x54, 0x3d, 0x1f, 0x12, 0x0b, 0x3c, 0x0d, 0xe0, 0xc6, 0x31,
  0xb3, 0xd1, 0x3e, 0x3c, 0x9c, 0x8a, 0x1e, 0xbc, 0xc0, 0xc0, 0xb3, 0x3a,
  0xea, 0xff, 0xc6, 0x3b, 0xc4, 0xce, 0x14, 0x3f, 0x22, 0xd6, 0x02, 0x3f,
  0x7f, 0xfc, 0x43, 0x3e, 0x9f, 0x8c, 0x32, 0xac, 0x27, 0x90, 0x17, 0x3f,
  0xa0, 0x09, 0xf1, 0x23, 0x2c, 0x1d, 0x38, 0x3f, 0xcb, 0xb1, 0xb8, 0x3e,
  0xb3, 0x82, 0xa6, 0x3e, 0xd2, 0xa7, 0xa8, 0x3e, 0xd9, 0xa3, 0x4a, 0x3e,
  0xff, 0x30, 0x4e, 0xbd, 0xfc, 0x66, 0x76, 0x3e, 0xfc, 0xce, 0xe9, 0x22,
  0x76, 0xd5, 0xf4, 0x3d, 0xf4, 0x91, 0x97, 0x3e, 0xa9, 0x3b, 0xc2, 0x3d,
  0xd9, 0x5c, 0x89, 0xbe, 0xee, 0x45, 0x91, 0xbe, 0xc6, 0x95, 0x69, 0xbe,
  0xe3, 0xed, 0x22, 0x2c, 0xea, 0x63, 0x97, 0x39, 0xbf, 0xcc, 0xa4, 0x3e,
  0xe3, 0xf3, 0x15, 0xbe, 0xbc, 0xe1, 0x53, 0xbd, 0x29, 0x6a, 0x5e, 0xbe,
  0x2d, 0xab, 0x15, 0x37, 0x12, 0xc2, 0x9c, 0xae, 0x94, 0x0a, 0xf8, 0xbd,
  0x65, 0xff, 0xb5, 0x38, 0x02, 0xde, 0x90, 0xa5, 0xc2, 0x72, 0x55, 0x3a,
  0x2c, 0x56, 0x6a, 0xbc, 0x27, 0xa4, 0xbe, 0xbd, 0x2d, 0xc8, 0x4c, 0xbe,
  0x07, 0xff, 0xb4, 0x3b, 0x26, 0x92, 0xc5, 0x3d, 0xe4, 0xec, 0xa0, 0x3a,
  0x7e, 0xdd, 0x9c, 0x34, 0x48, 0xb8, 0x86, 0x3d, 0xe2, 0x15, 0x12, 0xbd,
  0x34, 0x0f, 0xfc, 0xbd, 0x7b, 0x67, 0x01, 0xbe, 0xe6, 0xbc, 0xa7, 0xbe,
  0xf6, 0x9e, 0x89, 0x3e, 0x76, 0x31, 0xa0, 0xa2, 0xc7, 0xa0, 0xa5, 0xae,
  0x5c, 0x2a, 0xf7, 0xa6, 0x33, 0xe8, 0x6f, 0x21, 0x2b, 0xdd, 0xb3, 0xa3,
  0xe6, 0xee, 0xd4, 0xb6, 0x98, 0x8d, 0x4d, 0xbb, 0xb0, 0xbe, 0x28, 0xbc,
  0x78, 0x65, 0xb9, 0xb8, 0x98, 0x18, 0xad, 0xba, 0xac, 0xfa, 0x7d, 0x3b,
  0x99, 0x25, 0x9e, 0xa1, 0x9e, 0xd5, 0xef, 0xbb, 0xb2, 0xb8, 0xb8, 0xbb,
  0xa5, 0x3b, 0x74, 0xb9, 0x75, 0xbd, 0xc7, 0x25, 0x42, 0x70, 0x16, 0x21,
  0x65, 0x4f, 0x04, 0x39, 0x7a, 0x1b, 0xaf, 0x21, 0x85, 0x13, 0x09, 0xbc,
  0xef, 0x9c, 0xb8, 0xb8, 0xdc, 0x20, 0x62, 0xbb, 0x7e, 0x9c, 0x20, 0x3a,
  0x49, 0xc6, 0xe3, 0xba, 0xa5, 0xe0, 0x63, 0x37, 0x35, 0xa0, 0xd9, 0x27,
  0x5f, 0xda, 0x6b, 0xb8, 0xbe, 0x9c, 0xaf, 0x3b, 0x17, 0x6c, 0xfc, 0xb7,
  0xc0, 0x68, 0xe9, 0x3a, 0x63, 0x8d, 0x11, 0xbc, 0xcc, 0x82, 0xad, 0xb9,
  0xd6, 0xb6, 0x88, 0xbb, 0xc7, 0x5a, 0x5f, 0xbe, 0x39, 0xeb, 0xb8, 0x3d,
  0x11, 0xb5, 0x36, 0x3f, 0x61, 0xfb, 0x14, 0x3f, 0x2f, 0xfd, 0xb7, 0x3e,
  0x89, 0xa0, 0x02, 0x3f, 0x02, 0xdf, 0xf1, 0xbb, 0x79, 0x82, 0x57, 0xb8,
  0x54, 0xee, 0x11, 0x3f, 0xd4, 0x0a, 0xfa, 0x3d, 0x17, 0x1b, 0xf5, 0x3d,
  0xde, 0xaf, 0xd3, 0x3d, 0x03, 0x7b, 0x42, 0x23, 0x38, 0xcd, 0x94, 0x38,
  0x30, 0x2f, 0x5e, 0x2f, 0x67, 0x66, 0x3b, 0x37, 0x21, 0xe1, 0x67, 0xb8,
  0x4f, 0x21, 0xc0, 0xa6, 0xc4, 0xdb, 0x60, 0x3d, 0x68, 0x4b, 0x8c, 0x3e,
  0xf8, 0xd6, 0xe2, 0x3e, 0x57, 0xc5, 0x92, 0x32, 0x99, 0x8a, 0xe9, 0x3e,
  0xa6, 0x28, 0x56, 0xb9, 0xc3, 0x9f, 0x3f, 0x3f, 0x0a, 0x4a, 0xdb, 0x3e,
  0xfc, 0x56, 0xb3, 0x3e, 0x8b, 0x52, 0xb6, 0x3e, 0xac, 0xe5, 0x6f, 0x3d,
  0x6d, 0x2e, 0x67, 0x3d, 0x68, 0xe8, 0xe0, 0x3e, 0x63, 0x08, 0x8f, 0xa5,
  0xd9, 0xce, 0x60, 0xbe, 0x09, 0xcd, 0x15, 0x3f, 0x40, 0x36, 0xd3, 0x3e,
  0x72, 0x8f, 0x13, 0x3f, 0x98, 0x7a, 0x18, 0x3f, 0xd2, 0x11, 0xcc, 0x3e,
  0xb9, 0xa5, 0xbf, 0xbb, 0x8c, 0x5e, 0xe5, 0xa2, 0x11, 0x9d, 0x97, 0x3e,
  0x9c, 0xa6, 0x8e, 0xbe, 0x9e, 0x53, 0x0f, 0x3f, 0x2b, 0x33, 0x62, 0x3e,
  0x3d, 0xd2, 0x63, 0x3b, 0x95, 0xd7, 0xf3, 0xbb, 0x1b, 0xf9, 0xc7, 0xbc,
  0x2d, 0x72, 0x01, 0x3b, 0x6f, 0xc8, 0xae, 0xb9, 0x9a, 0x3f, 0x25, 0x3c,
  0xca, 0x64, 0xd3, 0x3e, 0x7e, 0x17, 0x0f, 0x3f, 0xd8, 0x0e, 0x08, 0x3f,
  0x84, 0xf1, 0xc2, 0xba, 0x9b, 0x15, 0x40, 0xbb, 0x23, 0x8e, 0x86, 0x37,
  0xf4, 0x79, 0x4f, 0x3f, 0x53, 0x8b, 0xcc, 0x3e, 0xce, 0xd7, 0x7a, 0x3d,
  0xd5, 0x35, 0x00, 0xbd, 0xd6, 0x40, 0x00, 0x3f, 0xea, 0xce, 0xef, 0x3b,
  0xe7, 0x13, 0x10, 0x3e, 0x86, 0x92, 0x2f, 0x3a, 0xfb, 0xd9, 0xdc, 0xbb,
  0x9b, 0x4c, 0x91, 0xab, 0x77, 0xac, 0x9d, 0xa2, 0x84, 0x28, 0x90, 0xbb,
  0x46, 0xd1, 0x04, 0xba, 0x23, 0x8d, 0x8c, 0xba, 0xac, 0xfd, 0x6d, 0x27,
  0x89, 0xa1, 0x47, 0x28, 0x80, 0x5b, 0xa0, 0xa6, 0xb9, 0x4f, 0x89, 0x22,
  0xc9, 0x18, 0x8e, 0xa3, 0xd4, 0x81, 0x8c, 0xbb, 0x8d, 0x76, 0x56, 0x23,
  0x11, 0xeb, 0x3c, 0x3b, 0x0a, 0x5c, 0xf1, 0x39, 0x8c, 0x5c, 0x29, 0xac,
  0x89, 0xf9, 0xa5, 0xa8, 0x25, 0x92, 0x15, 0x26, 0xe3, 0x7f, 0xb2, 0x21,
  0x2b, 0x31, 0x49, 0x2c, 0x6f, 0xa4, 0x25, 0xb8, 0xce, 0xbc, 0xdd, 0xba,
  0x26, 0x9b, 0x07, 0x39, 0xc8, 0x60, 0x89, 0xb2, 0x43, 0x6f, 0x2b, 0xba,
  0xe6, 0xc7, 0x59, 0x2e, 0x3a, 0x9a, 0xe2, 0xaa, 0x01, 0x25, 0x7f, 0x3b,
  0xb6, 0xc7, 0xf8, 0xa1, 0x5b, 0x81, 0xfa, 0x24, 0x1e, 0xb5, 0x06, 0xb9,
  0x17, 0xa4, 0x91, 0x3a, 0x2c, 0x3b, 0x9a, 0x3d, 0x00, 0xbc, 0x05, 0x3e,
  0x76, 0x8e, 0xcd, 0x3e, 0xd6, 0x88, 0xc3, 0x3e, 0x75, 0x84, 0xa6, 0x3c,
  0xf3, 0xdb, 0x11, 0x3f, 0xf9, 0x33, 0x17, 0xbc, 0x1b, 0xcf, 0xb2, 0x2b,
  0x80, 0x35, 0xb3, 0x3d, 0x6f, 0xc7, 0x53, 0x39, 0x75, 0x17, 0x02, 0x3f,
  0x66, 0x46, 0x3b, 0x3b, 0x80, 0x25, 0x1e, 0x3a, 0xd4, 0x25, 0x34, 0xbb,
  0xe0, 0x6c, 0x27, 0x3c, 0x38, 0x38, 0x60, 0xb2, 0x68, 0x4e, 0xe8, 0xa6,
  0xe1, 0xe7, 0xd3, 0xba, 0xf5, 0x87, 0x08, 0x3b, 0x0a, 0xed, 0xff, 0x3d,
  0xe9, 0xb3, 0xbf, 0x3e, 0xcf, 0x81, 0xaf, 0x26, 0xea, 0x3a, 0xf4, 0x3e,
  0x9f, 0x98, 0x6a, 0x38, 0x48, 0x9d, 0x3c, 0x3f, 0x52, 0x36, 0xa0, 0x3d,
  0x41, 0x5c, 0x04, 0x3f, 0xb2, 0x1e, 0x6d, 0x3e, 0x48, 0x42, 0xa5, 0xbc,
  0x41, 0x94, 0xe2, 0x23, 0x9c, 0xb3, 0x97, 0x3e, 0xeb, 0xb1, 0xe9, 0xa3,
  0x24, 0xfb, 0x72, 0xbe, 0xf1, 0x2e, 0x48, 0xba, 0x75, 0xb0, 0xdb, 0x3e,
  0x8e, 0x39, 0xf6, 0xbd, 0x79, 0x85, 0xef, 0x3e, 0x9d, 0x87, 0x61, 0x3e,
  0xcf, 0x48, 0xd4, 0x35, 0x4d, 0xb6, 0xfa, 0x35, 0x68, 0xfd, 0x8e, 0x3e,
  0x17, 0x96, 0x3c, 0xbe, 0x65, 0x3d, 0x4a, 0x3c, 0x15, 0xa0, 0x67, 0x3d,
  0x75, 0x85, 0xf3, 0xb7, 0x99, 0x78, 0x09, 0xb3, 0x52, 0xef, 0xc7, 0x3c,
  0x8d, 0x47, 0x34, 0x3b, 0x91, 0x49, 0x45, 0x38, 0x14, 0x72, 0x48, 0xa1,
  0x0b, 0x17, 0xb4, 0x3e, 0xb9, 0xb9, 0xe5, 0x3e, 0x06, 0x1d, 0xd5, 0x3e,
  0x79, 0x92, 0x9a, 0x35, 0x77, 0x5b, 0x8f, 0x3d, 0x5b, 0x94, 0xf7, 0xb6,
  0xab, 0x37, 0x2e, 0x3f, 0x76, 0x1a, 0x00, 0x3e, 0x40, 0x94, 0xc3, 0x3e,
  0x94, 0xa0, 0x5d, 0x3e, 0x2e, 0x86, 0xc5, 0x3e, 0x30, 0x93, 0xcd, 0xbc,
  0x65, 0xd2, 0x75, 0x3e, 0x22, 0xee, 0x26, 0x3a, 0x2b, 0x13, 0x32, 0xb7,
  0xd1, 0xb8, 0x03, 0xbc, 0x22, 0x17, 0x6f, 0xb8, 0x7d, 0xb5, 0x53, 0xbb,
  0x4e, 0x0b, 0x03, 0x39, 0x86, 0x85, 0xc7, 0x3a, 0xfc, 0x82, 0xdb, 0x37,
  0x42, 0x87, 0x77, 0xa4, 0x44, 0xac, 0x5c, 0x29, 0x11, 0xd1, 0x65, 0x3b,
  0x16, 0x30, 0x07, 0xba, 0xbd, 0x71, 0x98, 0xa2, 0x98, 0x17, 0x1b, 0xa2,
  0xb5, 0x69, 0x0a, 0x37, 0xca, 0x01, 0x20, 0x26, 0xe6, 0x56, 0x1d, 0x3c,
  0x0d, 0xf4, 0x95, 0xa2, 0x0f, 0x45, 0x19, 0xa5, 0x4a, 0xe3, 0x27, 0x29,
  0xf7, 0xed, 0x02, 0xbc, 0x72, 0xf9, 0xb5, 0xa2, 0x2f, 0x72, 0x0b, 0xbc,
  0x5b, 0xc3, 0xa8, 0x33, 0x4d, 0xca, 0x29, 0x38, 0x81, 0xcb, 0xc1, 0xbb,
  0xc8, 0x02, 0xa8, 0x25, 0xea, 0x41, 0x54, 0x24, 0xdb, 0xe1, 0x0c, 0x3b,
  0x9d, 0xb0, 0x18, 0xa3, 0xa1, 0x48, 0xe9, 0xba, 0xd1, 0x73, 0x8f, 0xb5,
  0x5b, 0xb6, 0x4c, 0xbb, 0x8f, 0x7d, 0xa6, 0xbd, 0xe3, 0xe3, 0xa0, 0xbe,
  0xcd, 0x7a, 0x2b, 0x3e, 0xf8, 0x11, 0x49, 0xbe, 0x15, 0x12, 0x3b, 0x3e,
  0x90, 0x9b, 0x9c, 0xbe, 0x66, 0x02, 0xc0, 0xa4, 0x96, 0xda, 0xf1, 0x3b,
  0x09, 0x03, 0x15, 0x3e, 0x77, 0xf5, 0x21, 0x3e, 0xf6, 0xb2, 0x68, 0xbe,
  0x8a, 0x2e, 0xf8, 0xbb, 0xcb, 0xbd, 0x8a, 0x3b, 0xeb, 0x07, 0x97, 0x39,
  0x25, 0x9d, 0xc7, 0x3a, 0xe8, 0xa6, 0xaf, 0xab, 0x25, 0x44, 0x1c, 0xa3,
  0x86, 0xd6, 0xad, 0xbb, 0xc6, 0x41, 0x55, 0xbe, 0xf4, 0x72, 0x38, 0xbe,
  0x2c, 0x21, 0xfb, 0xbc, 0x29, 0x2a, 0x8a, 0xa6, 0xa4, 0x1f, 0x7c, 0xbe,
  0xbc, 0x0b, 0x51, 0x3b, 0x55, 0x16, 0x4c, 0x3b, 0xa1, 0xcf, 0x8a, 0x3e,
  0x4f, 0x66, 0xfa, 0x3d, 0x6d, 0x5e, 0x0e, 0x3d, 0x5f, 0xf8, 0x77, 0xbd,
  0xf8, 0x6c, 0x85, 0x3e, 0x0c, 0x68, 0x56, 0x3e, 0xb7, 0x0c, 0x45, 0x24,
  0xb3, 0xc3, 0x4c, 0xbe, 0x60, 0xa9, 0x88, 0x3e, 0x3d, 0xec, 0x73, 0x3e,
  0x87, 0xe5, 0xfd, 0x3e, 0x57, 0x1a, 0x24, 0x3e, 0xd3, 0xd5, 0x1e, 0x3f,
  0x06, 0xaa, 0xbd, 0x22, 0x9d, 0x5e, 0x2b, 0x37, 0x6c, 0xca, 0xbc, 0x3e,
  0x8a, 0x93, 0x89, 0xbe, 0x93, 0x85, 0x9c, 0x3e, 0x93, 0xbd, 0x00, 0x3f,
  0x6b, 0xdd, 0x5d, 0x38, 0x92, 0x6d, 0xb4, 0x34, 0x6f, 0x85, 0x7a, 0xbc,
  0x0a, 0xcf, 0xac, 0x3a, 0x8f, 0x89, 0x0b, 0xbc, 0x06, 0xec, 0x2d, 0x2c,
  0xc5, 0x78, 0x0a, 0x3f, 0x9c, 0x0c, 0x59, 0x3e, 0x92, 0xaa, 0x03, 0x3f,
  0x5d, 0xd2, 0x2a, 0xa9, 0xb0, 0x73, 0x40, 0x3d, 0x38, 0x20, 0xfc, 0x36,
  0xbc, 0x44, 0x4e, 0x3f, 0xb4, 0xf9, 0xe3, 0x3e, 0x5e, 0x72, 0x08, 0x3f,
  0x95, 0x16, 0x53, 0x3c, 0xb3, 0x1d, 0x9b, 0x3e, 0x64, 0x53, 0x2a, 0xb9,
  0x4a, 0xcd, 0x07, 0x3f, 0x73, 0x7c, 0xc1, 0xb8, 0xe4, 0x47, 0x1d, 0xaa,
  0x2d, 0x58, 0x12, 0xba, 0xdc, 0xde, 0xb0, 0xa2, 0x66, 0x9c, 0x52, 0xac,
  0xf7, 0x4d, 0x6b, 0x34, 0x2b, 0x72, 0x65, 0xbb, 0x19, 0xa9, 0x22, 0x3c,
  0x6b, 0xdf, 0x9a, 0xbb, 0xb1, 0x27, 0x30, 0x3b, 0xd2, 0x6a, 0x0e, 0x2c,
  0x9a, 0x29, 0x07, 0x36, 0xc4, 0xc8, 0x75, 0x3b, 0xe9, 0x78, 0x30, 0x24,
  0xe5, 0xfa, 0x3b, 0x28, 0x65, 0x17, 0x99, 0x39, 0x3d, 0x57, 0x4a, 0xb9,
  0xad, 0x0e, 0x03, 0x25, 0x2f, 0x18, 0x2a, 0x3b, 0xc1, 0xc6, 0x99, 0xba,
  0xe4, 0x21, 0xaa, 0x22, 0x0c, 0x9f, 0x7b, 0xb9, 0x08, 0x14, 0x04, 0xba,
  0x64, 0xcc, 0x87, 0xb9, 0xb0, 0x25, 0x2d, 0xbc, 0x7e, 0x95, 0x15, 0xb9,
  0x41, 0x0f, 0x5b, 0x3a, 0x7b, 0xbd, 0xa7, 0xb4, 0x8e, 0x73, 0x33, 0x37,
  0xf3, 0xd4, 0xd7, 0x22, 0x05, 0x79, 0xac, 0xaa, 0x5a, 0xe2, 0x46, 0xbb,
  0x07, 0x69, 0x3f, 0x31, 0xf9, 0x49, 0xad, 0xbe, 0xca, 0x4d, 0xce, 0x3d,
  0x73, 0xeb, 0x46, 0x3e, 0x16, 0x3f, 0xdc, 0xbc, 0x5f, 0x4c, 0x57, 0x3d,
  0x97, 0x71, 0x0c, 0xbe, 0x00, 0xb7, 0x22, 0x23, 0x34, 0x14, 0xac, 0x32,
  0xec, 0xef, 0xa1, 0xbe, 0x59, 0xe5, 0x11, 0x3e, 0x35, 0x42, 0x23, 0x3e,
  0x51, 0x46, 0x31, 0x3e, 0x68, 0xd3, 0x69, 0x3b, 0x10, 0xeb, 0x3d, 0xa0,
  0x98, 0x1e, 0xbf, 0x3d, 0xf0, 0x3e, 0x94, 0xa2, 0x79, 0xb4, 0x91, 0x38,
  0xe8, 0xe1, 0x54, 0x2b, 0x60, 0xae, 0xec, 0x3c, 0x78, 0x71, 0x72, 0x3e,
  0xc4, 0xe4, 0xb6, 0x3d, 0xcd, 0xcc, 0x33, 0xa3, 0xf3, 0x20, 0x7a, 0x3e,
  0xc0, 0x62, 0x1c, 0x1e, 0xa9, 0x33, 0x6c, 0xbe, 0xc5, 0x9b, 0x63, 0x3e,
  0xd4, 0x17, 0xb9, 0xbe, 0xac, 0xad, 0x57, 0x3e, 0x71, 0xf0, 0x35, 0xbe,
  0x2e, 0xac, 0xa3, 0xbd, 0x44, 0xf7, 0xbf, 0xbe, 0x4a, 0x2f, 0x62, 0xba,
  0xc2, 0x6a, 0x5a, 0xbe, 0xb2, 0x80, 0xeb, 0x3e, 0xcc, 0x2b, 0x19, 0x3f,
  0x3d, 0x15, 0x9b, 0x3e, 0x2e, 0xf3, 0xa4, 0x3d, 0x97, 0x54, 0x05, 0x3f,
  0xa9, 0x93, 0x4e, 0xa4, 0x48, 0x5e, 0x4b, 0x36, 0x7e, 0xa5, 0xce, 0x3d,
  0xb8, 0x00, 0x49, 0x3d, 0xc5, 0x38, 0xe4, 0x3e, 0x4e, 0x59, 0xf2, 0x3e,
  0x8b, 0x30, 0x1f, 0xbb, 0x4c, 0xab, 0xa9, 0x38, 0x89, 0x86, 0x1b, 0x3d,
  0x20, 0x84, 0xc3, 0xa5, 0xf9, 0xc7, 0x1c, 0xaa, 0x08, 0x64, 0x39, 0x3b,
  0x9a, 0x65, 0xb6, 0x3e, 0x17, 0x90, 0x20, 0x3e, 0xf5, 0xba, 0x91, 0x3e,
  0x9a, 0xf6, 0xac, 0xba, 0x85, 0x25, 0x1b, 0x3f, 0xcd, 0xab, 0x80, 0x22,
  0xe4, 0x30, 0x40, 0x3f, 0xfd, 0x6f, 0x9f, 0x3e, 0x37, 0xb2, 0x0e, 0x3e,
  0xa2, 0x54, 0xfd, 0x3e, 0x9e, 0xdc, 0xe7, 0x3e, 0xa6, 0xa2, 0x83, 0xbe,
  0x8d, 0x6c, 0x7c, 0x3e, 0xcf, 0xd8, 0x36, 0xba, 0xb9, 0xf7, 0xa1, 0xbc,
  0xcc, 0xfe, 0xb6, 0xbc, 0x51, 0xf3, 0x2c, 0x3b, 0x40, 0x3c, 0x90, 0xbb,
  0x3c, 0x69, 0xc6, 0xbb, 0xa3, 0x87, 0xa9, 0x3d, 0x15, 0x8b, 0x32, 0x3b,
  0xb1, 0xba, 0x70, 0xb7, 0x34, 0x4f, 0x26, 0xbb, 0xeb, 0x8d, 0x63, 0x3c,
  0xe8, 0xf5, 0x44, 0x3d, 0x9e, 0x66, 0x9b, 0xba, 0xa4, 0x2d, 0x40, 0x28,
  0xce, 0x29, 0x91, 0x23, 0x88, 0x39, 0x12, 0xbb, 0x2a, 0x61, 0x25, 0xa0,
  0x37, 0xb2, 0xd8, 0xbb, 0xd5, 0xa8, 0xb6, 0x22, 0x19, 0x21, 0x49, 0x3d,
  0xf6, 0xd7, 0x2d, 0xbb, 0x0c, 0x5e, 0x28, 0xbd, 0x05, 0xd7, 0x9f, 0x3a,
  0x44, 0xbc, 0xa3, 0xbb, 0x67, 0x1e, 0x0c, 0x25, 0x4e, 0xf5, 0x3b, 0xba,
  0x97, 0xef, 0xaf, 0xbc, 0x9e, 0x57, 0x71, 0xbd, 0xfc, 0x7a, 0xc3, 0x3b,
  0xb9, 0xd2, 0x57, 0xbb, 0xe9, 0xeb, 0x3a, 0xb8, 0x21, 0x51, 0x0f, 0xbb,
  0x94, 0xd6, 0xa4, 0xba, 0xf2, 0xfd, 0xff, 0xff, 0x04, 0x00, 0x00, 0x00,
  0x00, 0x02, 0x00, 0x00, 0x12, 0xe3, 0x0b, 0x35, 0xb6, 0x3e, 0x80, 0xbb,
  0x4b, 0x15, 0x5a, 0xbd, 0xb9, 0xa8, 0xa6, 0xbc, 0x88, 0x19, 0x84, 0x2e,
  0x7a, 0xf8, 0x29, 0xac, 0x1d, 0xe3, 0x8b, 0x3b, 0x37, 0xf2, 0xa5, 0xbc,
  0xc0, 0x3f, 0xbb, 0xbb, 0xb0, 0xc4, 0xae, 0xbc, 0x2e, 0xe0, 0x5c, 0xbb,
  0x34, 0x79, 0xf5, 0xbc, 0x1e, 0x89, 0xa5, 0x22, 0xb6, 0x9c, 0xb3, 0xb8,
  0x51, 0x38, 0xea, 0x23, 0x73, 0x40, 0xac, 0xbc, 0xee, 0x12, 0x8e, 0xb7,
  0x76, 0x7a, 0xd2, 0xbe, 0x36, 0x80, 0xac, 0xbe, 0x41, 0x8e, 0x19, 0x2a,
  0xc6, 0x77, 0x94, 0x3e, 0x6c, 0xf5, 0xf1, 0x3d, 0x3f, 0xa9, 0x86, 0x3b,
  0x5d, 0x8c, 0x26, 0xbd, 0xac, 0xb1, 0x5f, 0xbe, 0x69, 0x3d, 0x77, 0xbb,
  0x98, 0x80, 0xdb, 0x3d, 0x72, 0xee, 0xa1, 0xbd, 0x80, 0x38, 0x9b, 0xae,
  0x87, 0xb4, 0x2d, 0xbd, 0xcf, 0x36, 0x75, 0x3e, 0x1d, 0x20, 0x9c, 0x3c,
  0x1f, 0x66, 0x3e, 0xbc, 0xc4, 0x34, 0x47, 0xbe, 0x64, 0xe8, 0x65, 0x3e,
  0x96, 0xd5, 0x7b, 0xbb, 0x29, 0xeb, 0x4e, 0xa7, 0xad, 0x3f, 0xe4, 0x3c,
  0xc3, 0x10, 0xfd, 0xba, 0xd9, 0x7d, 0x0d, 0x39, 0xf3, 0x14, 0x96, 0xbe,
  0x0c, 0x34, 0xd5, 0xb8, 0x47, 0xe1, 0xbc, 0x23, 0x2c, 0x17, 0x40, 0xba,
  0xa1, 0x47, 0x44, 0x3d, 0xc1, 0x15, 0x88, 0x3e, 0xe6, 0x0f, 0xe5, 0xbc,
  0x67, 0x2e, 0xe2, 0x38, 0x32, 0xb3, 0x26, 0xbd, 0xaa, 0x40, 0xd1, 0x3e,
  0x9b, 0xaf, 0xc6, 0x3e, 0xbb, 0xfb, 0xac, 0xa4, 0xf1, 0x69, 0x4b, 0xbe,
  0x2e, 0xbd, 0x9f, 0x3d, 0x93, 0xe8, 0xa1, 0x39, 0x67, 0xaf, 0xeb, 0xa2,
  0xd4, 0x9a, 0x6b, 0xbe, 0x69, 0xbf, 0xb5, 0x36, 0x08, 0x15, 0xdb, 0x3e,
  0xcf, 0x46, 0xe6, 0xbe, 0xe0, 0x30, 0x61, 0xbd, 0xe8, 0x4d, 0x33, 0x3e,
  0x20, 0x43, 0x18, 0xbe, 0xf1, 0x67, 0x6a, 0x38, 0x28, 0x48, 0x75, 0x3c,
  0x70, 0xb5, 0xb0, 0x3e, 0xd9, 0x42, 0x86, 0xbe, 0x57, 0xb2, 0x4f, 0x24,
  0xcc, 0x18, 0xa9, 0x3e, 0x81, 0x50, 0x95, 0xbe, 0xb9, 0x4e, 0x75, 0xbd,
  0x76, 0x37, 0x80, 0xbe, 0xab, 0x1e, 0xb6, 0x3e, 0xc3, 0x00, 0x8c, 0x3b,
  0xbd, 0xc8, 0x88, 0x3d, 0x53, 0x91, 0x03, 0x3e, 0xc0, 0x4f, 0x2d, 0x37,
  0x91, 0x32, 0xdb, 0x3e, 0xfd, 0xae, 0x04, 0xbf, 0xa5, 0x23, 0xf7, 0xbc,
  0x32, 0x18, 0x8c, 0xbb, 0xab, 0x31, 0xbe, 0xbd, 0x4f, 0xfc, 0xc2, 0xbc,
  0x71, 0x15, 0x35, 0x36, 0x2e, 0x3e, 0xd5, 0x3a, 0x6c, 0xdb, 0x33, 0x3a,
  0xe7, 0x39, 0xad, 0xbb, 0xcf, 0xc6, 0x12, 0xba, 0x99, 0x09, 0x8e, 0xbe,
  0xc5, 0x1d, 0x99, 0x3b, 0xb8, 0x64, 0x4c, 0xb6, 0x60, 0x5e, 0x2d, 0xbe,
  0x02, 0xf8, 0x3e, 0xbc, 0x76, 0x96, 0x08, 0x3e, 0xfd, 0x74, 0x71, 0x3e,
  0xbe, 0x11, 0xa0, 0xb7, 0x3b, 0x94, 0x2a, 0xbc, 0x9b, 0xdd, 0x3c, 0x3f,
  0x54, 0x9f, 0xf2, 0xbe, 0x7a, 0x10, 0x17, 0xa5, 0xf1, 0xfb, 0x43, 0x3f,
  0x44, 0x8e, 0x45, 0x3f, 0xf2, 0xe9, 0xd7, 0xb9, 0x78, 0x37, 0x9e, 0x3e,
  0xd9, 0x95, 0xeb, 0x3e, 0xbb, 0xe1, 0xb8, 0x36, 0x29, 0xf8, 0x71, 0x3d,
  0x7b, 0x02, 0x37, 0x3f, 0xa2, 0x53, 0x11, 0x3d, 0x2d, 0x15, 0xe9, 0xbd,
  0xc6, 0x85, 0x39, 0x3f, 0x92, 0x46, 0xbb, 0xbc, 0x04, 0x3a, 0xeb, 0xb8,
  0xa6, 0x5f, 0xd5, 0xbe, 0xaa, 0xec, 0x2b, 0xbe, 0x9d, 0x62, 0x48, 0xa9,
  0xb6, 0xc5, 0xea, 0xbd, 0x36, 0x7f, 0xa3, 0x3e, 0x3d, 0x6c, 0x75, 0xb6,
  0x98, 0xa6, 0x0a, 0xa3, 0x18, 0xbe, 0x34, 0x3e, 0x80, 0x20, 0x20, 0xbd,
  0x9e, 0xd6, 0x11, 0x3b, 0x1b, 0x1e, 0xe3, 0xbc, 0xaa, 0xcd, 0xf2, 0x36,
  0xc4, 0x90, 0x04, 0xbd, 0x01, 0x34, 0x83, 0xbe, 0x38, 0xf5, 0x1c, 0x3b,
  0x00, 0x00, 0x06, 0x00, 0x08, 0x00, 0x04, 0x00, 0x06, 0x00, 0x00, 0x00,
  0x04, 0x00, 0x00, 0x00, 0x20, 0x00, 0x00, 0x00, 0x88, 0x80, 0x8d, 0x3e,
  0x68, 0x12, 0x2b, 0xbf, 0xcd, 0x90, 0x08, 0xbe, 0x41, 0x19, 0xd3, 0xbe,
  0x56, 0x71, 0x1d, 0xbf, 0x96, 0x43, 0x7f, 0xbe, 0xb2, 0x2c, 0x6c, 0x3f,
  0xef, 0xf9, 0x95, 0xbe, 0xf4, 0xf9, 0xff, 0xff, 0xf8, 0xf9, 0xff, 0xff,
  0x0f, 0x00, 0x00, 0x00, 0x4d, 0x4c, 0x49, 0x52, 0x20, 0x43, 0x6f, 0x6e,
  0x76, 0x65, 0x72, 0x74, 0x65, 0x64, 0x2e, 0x00, 0x01, 0x00, 0x00, 0x00,
  0x14, 0x00, 0x00, 0x00, 0x00, 0x00, 0x0e, 0x00, 0x18, 0x00, 0x14, 0x00,
  0x10, 0x00, 0x0c, 0x00, 0x08, 0x00, 0x04, 0x00, 0x0e, 0x00, 0x00, 0x00,
  0x14, 0x00, 0x00, 0x00, 0x1c, 0x00, 0x00, 0x00, 0x10, 0x01, 0x00, 0x00,
  0x14, 0x01, 0x00, 0x00, 0x18, 0x01, 0x00, 0x00, 0x04, 0x00, 0x00, 0x00,
  0x6d, 0x61, 0x69, 0x6e, 0x00, 0x00, 0x00, 0x00, 0x04, 0x00, 0x00, 0x00,
  0xb8, 0x00, 0x00, 0x00, 0x70, 0x00, 0x00, 0x00, 0x38, 0x00, 0x00, 0x00,
  0x04, 0x00, 0x00, 0x00, 0x66, 0xff, 0xff, 0xff, 0x10, 0x00, 0x00, 0x00,
  0x00, 0x00, 0x00, 0x08, 0x0c, 0x00, 0x00, 0x00, 0x10, 0x00, 0x00, 0x00,
  0x74, 0xfa, 0xff, 0xff, 0x01, 0x00, 0x00, 0x00, 0x0c, 0x00, 0x00, 0x00,
  0x03, 0x00, 0x00, 0x00, 0x0b, 0x00, 0x00, 0x00, 0x01, 0x00, 0x00, 0x00,
  0x04, 0x00, 0x00, 0x00, 0x96, 0xff, 0xff, 0xff, 0x10, 0x00, 0x00, 0x00,
  0x00, 0x00, 0x00, 0x08, 0x10, 0x00, 0x00, 0x00, 0x14, 0x00, 0x00, 0x00,
  0x86, 0xff, 0xff, 0xff, 0x00, 0x00, 0x00, 0x01, 0x01, 0x00, 0x00, 0x00,
  0x0b, 0x00, 0x00, 0x00, 0x03, 0x00, 0x00, 0x00, 0x0a, 0x00, 0x00, 0x00,
  0x02, 0x00, 0x00, 0x00, 0x05, 0x00, 0x00, 0x00, 0xca, 0xff, 0xff, 0xff,
  0x10, 0x00, 0x00, 0x00, 0x00, 0x00, 0x00, 0x08, 0x10, 0x00, 0x00, 0x00,
  0x14, 0x00, 0x00, 0x00, 0xba, 0xff, 0xff, 0xff, 0x00, 0x00, 0x00, 0x01,
  0x01, 0x00, 0x00, 0x00, 0x0a, 0x00, 0x00, 0x00, 0x03, 0x00, 0x00, 0x00,
  0x09, 0x00, 0x00, 0x00, 0x03, 0x00, 0x00, 0x00, 0x06, 0x00, 0x00, 0x00,
  0x00, 0x00, 0x0e, 0x00, 0x16, 0x00, 0x00, 0x00, 0x10, 0x00, 0x0c, 0x00,
  0x0b, 0x00, 0x04, 0x00, 0x0e, 0x00, 0x00, 0x00, 0x18, 0x00, 0x00, 0x00,
  0x00, 0x00, 0x00, 0x08, 0x18, 0x00, 0x00, 0x00, 0x1c, 0x00, 0x00, 0x00,
  0x00, 0x00, 0x06, 0x00, 0x08, 0x00, 0x07, 0x00, 0x06, 0x00, 0x00, 0x00,
  0x00, 0x00, 0x00, 0x01, 0x01, 0x00, 0x00, 0x00, 0x09, 0x00, 0x00, 0x00,
  0x03, 0x00, 0x00, 0x00, 0x00, 0x00, 0x00, 0x00, 0x08, 0x00, 0x00, 0x00,
  0x07, 0x00, 0x00, 0x00, 0x01, 0x00, 0x00, 0x00, 0x0c, 0x00, 0x00, 0x00,
  0x01, 0x00, 0x00, 0x00, 0x00, 0x00, 0x00, 0x00, 0x0d, 0x00, 0x00, 0x00,
  0x80, 0x04, 0x00, 0x00, 0x28, 0x04, 0x00, 0x00, 0xd0, 0x03, 0x00, 0x00,
  0x90, 0x03, 0x00, 0x00, 0x54, 0x03, 0x00, 0x00, 0x18, 0x03, 0x00, 0x00,
  0xc0, 0x02, 0x00, 0x00, 0x6c, 0x02, 0x00, 0x00, 0x20, 0x02, 0x00, 0x00,
  0x90, 0x01, 0x00, 0x00, 0xf8, 0x00, 0x00, 0x00, 0x60, 0x00, 0x00, 0x00,
  0x04, 0x00, 0x00, 0x00, 0xca, 0xfb, 0xff, 0xff, 0x00, 0x00, 0x00, 0x01,
  0x14, 0x00, 0x00, 0x00, 0x1c, 0x00, 0x00, 0x00, 0x1c, 0x00, 0x00, 0x00,
  0x0d, 0x00, 0x00, 0x00, 0x34, 0x00, 0x00, 0x00, 0x02, 0x00, 0x00, 0x00,
  0xff, 0xff, 0xff, 0xff, 0x01, 0x00, 0x00, 0x00, 0xb4, 0xfb, 0xff, 0xff,
  0x1b, 0x00, 0x00, 0x00, 0x53, 0x74, 0x61, 0x74, 0x65, 0x66, 0x75, 0x6c,
  0x50, 0x61, 0x72, 0x74, 0x69, 0x74, 0x69, 0x6f, 0x6e, 0x65, 0x64, 0x43,
  0x61, 0x6c, 0x6c, 0x5f, 0x31, 0x3a, 0x30, 0x00, 0x02, 0x00, 0x00, 0x00,
  0x01, 0x00, 0x00, 0x00, 0x01, 0x00, 0x00, 0x00, 0x22, 0xfc, 0xff, 0xff,
  0x00, 0x00, 0x00, 0x01, 0x14, 0x00, 0x00, 0x00, 0x1c, 0x00, 0x00, 0x00,
  0x1c, 0x00, 0x00, 0x00, 0x0c, 0x00, 0x00, 0x00, 0x70, 0x00, 0x00, 0x00,
  0x02, 0x00, 0x00, 0x00, 0xff, 0xff, 0xff, 0xff, 0x08, 0x00, 0x00, 0x00,
  0x0c, 0xfc, 0xff, 0xff, 0x54, 0x00, 0x00, 0x00, 0x73, 0x65, 0x71, 0x75,
  0x65, 0x6e, 0x74, 0x69, 0x61, 0x6c, 0x5f, 0x31, 0x2f, 0x64, 0x65, 0x6e,
  0x73, 0x65, 0x5f, 0x32, 0x5f, 0x31, 0x2f, 0x4d, 0x61, 0x74, 0x4d, 0x75,
  0x6c, 0x3b, 0x73, 0x65, 0x71, 0x75, 0x65, 0x6e, 0x74, 0x69, 0x61, 0x6c,
  0x5f, 0x31, 0x2f, 0x64, 0x65, 0x6e, 0x73, 0x65, 0x5f, 0x32, 0x5f, 0x31,
  0x2f, 0x52, 0x65, 0x6c, 0x75, 0x3b, 0x73, 0x65, 0x71, 0x75, 0x65, 0x6e,
  0x74, 0x69, 0x61, 0x6c, 0x5f, 0x31, 0x2f, 0x64, 0x65, 0x6e, 0x73, 0x65,
  0x5f, 0x32, 0x5f, 0x31, 0x2f, 0x41, 0x64, 0x64, 0x00, 0x00, 0x00, 0x00,
  0x02, 0x00, 0x00, 0x00, 0x01, 0x00, 0x00, 0x00, 0x08, 0x00, 0x00, 0x00,
  0xb6, 0xfc, 0xff, 0xff, 0x00, 0x00, 0x00, 0x01, 0x14, 0x00, 0x00, 0x00,
  0x1c, 0x00, 0x00, 0x00, 0x1c, 0x00, 0x00, 0x00, 0x0b, 0x00, 0x00, 0x00,
  0x70, 0x00, 0x00, 0x00, 0x02, 0x00, 0x00, 0x00, 0xff, 0xff, 0xff, 0xff,
  0x10, 0x00, 0x00, 0x00, 0xa0, 0xfc, 0xff, 0xff, 0x54, 0x00, 0x00, 0x00,
  0x73, 0x65, 0x71, 0x75, 0x65, 0x6e, 0x74, 0x69, 0x61, 0x6c, 0x5f, 0x31,
  0x2f, 0x64, 0x65, 0x6e, 0x73, 0x65, 0x5f, 0x31, 0x5f, 0x32, 0x2f, 0x4d,
  0x61, 0x74, 0x4d, 0x75, 0x6c, 0x3b, 0x73, 0x65, 0x71, 0x75, 0x65, 0x6e,
  0x74, 0x69, 0x61, 0x6c, 0x5f, 0x31, 0x2f, 0x64, 0x65, 0x6e, 0x73, 0x65,
  0x5f, 0x31, 0x5f, 0x32, 0x2f, 0x52, 0x65, 0x6c, 0x75, 0x3b, 0x73, 0x65,
  0x71, 0x75, 0x65, 0x6e, 0x74, 0x69, 0x61, 0x6c, 0x5f, 0x31, 0x2f, 0x64,
  0x65, 0x6e, 0x73, 0x65, 0x5f, 0x31, 0x5f, 0x32, 0x2f, 0x41, 0x64, 0x64,
  0x00, 0x00, 0x00, 0x00, 0x02, 0x00, 0x00, 0x00, 0x01, 0x00, 0x00, 0x00,
  0x10, 0x00, 0x00, 0x00, 0x4a, 0xfd, 0xff, 0xff, 0x00, 0x00, 0x00, 0x01,
  0x14, 0x00, 0x00, 0x00, 0x1c, 0x00, 0x00, 0x00, 0x1c, 0x00, 0x00, 0x00,
  0x0a, 0x00, 0x00, 0x00, 0x68, 0x00, 0x00, 0x00, 0x02, 0x00, 0x00, 0x00,
  0xff, 0xff, 0xff, 0xff, 0x20, 0x00, 0x00, 0x00, 0x34, 0xfd, 0xff, 0xff,
  0x4e, 0x00, 0x00, 0x00, 0x73, 0x65, 0x71, 0x75, 0x65, 0x6e, 0x74, 0x69,
  0x61, 0x6c, 0x5f, 0x31, 0x2f, 0x64, 0x65, 0x6e, 0x73, 0x65, 0x5f, 0x31,
  0x2f, 0x4d, 0x61, 0x74, 0x4d, 0x75, 0x6c, 0x3b, 0x73, 0x65, 0x71, 0x75,
  0x65, 0x6e, 0x74, 0x69, 0x61, 0x6c, 0x5f, 0x31, 0x2f, 0x64, 0x65, 0x6e,
  0x73, 0x65, 0x5f, 0x31, 0x2f, 0x52, 0x65, 0x6c, 0x75, 0x3b, 0x73, 0x65,
  0x71, 0x75, 0x65, 0x6e, 0x74, 0x69, 0x61, 0x6c, 0x5f, 0x31, 0x2f, 0x64,
  0x65, 0x6e, 0x73, 0x65, 0x5f, 0x31, 0x2f, 0x41, 0x64, 0x64, 0x00, 0x00,
  0x02, 0x00, 0x00, 0x00, 0x01, 0x00, 0x00, 0x00, 0x20, 0x00, 0x00, 0x00,
  0x2a, 0xfe, 0xff, 0xff, 0x00, 0x00, 0x00, 0x01, 0x10, 0x00, 0x00, 0x00,
  0x10, 0x00, 0x00, 0x00, 0x09, 0x00, 0x00, 0x00, 0x28, 0x00, 0x00, 0x00,
  0xb0, 0xfd, 0xff, 0xff, 0x1b, 0x00, 0x00, 0x00, 0x73, 0x65, 0x71, 0x75,
  0x65, 0x6e, 0x74, 0x69, 0x61, 0x6c, 0x5f, 0x31, 0x2f, 0x64, 0x65, 0x6e,
  0x73, 0x65, 0x5f, 0x31, 0x2f, 0x4d, 0x61, 0x74, 0x4d, 0x75, 0x6c, 0x00,
  0x02, 0x00, 0x00, 0x00, 0x20, 0x00, 0x00, 0x00, 0x03, 0x00, 0x00, 0x00,
  0x72, 0xfe, 0xff, 0xff, 0x00, 0x00, 0x00, 0x01, 0x10, 0x00, 0x00, 0x00,
  0x10, 0x00, 0x00, 0x00, 0x08, 0x00, 0x00, 0x00, 0x34, 0x00, 0x00, 0x00,
  0xf8, 0xfd, 0xff, 0xff, 0x27, 0x00, 0x00, 0x00, 0x73, 0x65, 0x71, 0x75,
  0x65, 0x6e, 0x74, 0x69, 0x61, 0x6c, 0x5f, 0x31, 0x2f, 0x64, 0x65, 0x6e,
  0x73, 0x65, 0x5f, 0x31, 0x2f, 0x41, 0x64, 0x64, 0x2f, 0x52, 0x65, 0x61,
  0x64, 0x56, 0x61, 0x72, 0x69, 0x61, 0x62, 0x6c, 0x65, 0x4f, 0x70, 0x00,
  0x01, 0x00, 0x00, 0x00, 0x20, 0x00, 0x00, 0x00, 0xc2, 0xfe, 0xff, 0xff,
  0x00, 0x00, 0x00, 0x01, 0x10, 0x00, 0x00, 0x00, 0x10, 0x00, 0x00, 0x00,
  0x07, 0x00, 0x00, 0x00, 0x38, 0x00, 0x00, 0x00, 0x48, 0xfe, 0xff, 0xff,
  0x29, 0x00, 0x00, 0x00, 0x73, 0x65, 0x71, 0x75, 0x65, 0x6e, 0x74, 0x69,
  0x61, 0x6c, 0x5f, 0x31, 0x2f, 0x64, 0x65, 0x6e, 0x73, 0x65, 0x5f, 0x31,
  0x5f, 0x32, 0x2f, 0x41, 0x64, 0x64, 0x2f, 0x52, 0x65, 0x61, 0x64, 0x56,
  0x61, 0x72, 0x69, 0x61, 0x62, 0x6c, 0x65, 0x4f, 0x70, 0x00, 0x00, 0x00,
  0x01, 0x00, 0x00, 0x00, 0x10, 0x00, 0x00, 0x00, 0x16, 0xff, 0xff, 0xff,
  0x00, 0x00, 0x00, 0x01, 0x10, 0x00, 0x00, 0x00, 0x10, 0x00, 0x00, 0x00,
  0x06, 0x00, 0x00, 0x00, 0x1c, 0x00, 0x00, 0x00, 0x9c, 0xfe, 0xff, 0xff,
  0x0f, 0x00, 0x00, 0x00, 0x61, 0x72, 0x69, 0x74, 0x68, 0x2e, 0x63, 0x6f,
  0x6e, 0x73, 0x74, 0x61, 0x6e, 0x74, 0x34, 0x00, 0x01, 0x00, 0x00, 0x00,
  0x08, 0x00, 0x00, 0x00, 0x4e, 0xff, 0xff, 0xff, 0x00, 0x00, 0x00, 0x01,
  0x10, 0x00, 0x00, 0x00, 0x10, 0x00, 0x00, 0x00, 0x05, 0x00, 0x00, 0x00,
  0x1c, 0x00, 0x00, 0x00, 0xd4, 0xfe, 0xff, 0xff, 0x0f, 0x00, 0x00, 0x00,
  0x61, 0x72, 0x69, 0x74, 0x68, 0x2e, 0x63, 0x6f, 0x6e, 0x73, 0x74, 0x61,
  0x6e, 0x74, 0x33, 0x00, 0x01, 0x00, 0x00, 0x00, 0x01, 0x00, 0x00, 0x00,
  0x86, 0xff, 0xff, 0xff, 0x00, 0x00, 0x00, 0x01, 0x10, 0x00, 0x00, 0x00,
  0x10, 0x00, 0x00, 0x00, 0x04, 0x00, 0x00, 0x00, 0x1c, 0x00, 0x00, 0x00,
  0x0c, 0xff, 0xff, 0xff, 0x0f, 0x00, 0x00, 0x00, 0x61, 0x72, 0x69, 0x74,
  0x68, 0x2e, 0x63, 0x6f, 0x6e, 0x73, 0x74, 0x61, 0x6e, 0x74, 0x32, 0x00,
  0x02, 0x00, 0x00, 0x00, 0x10, 0x00, 0x00, 0x00, 0x20, 0x00, 0x00, 0x00,
  0xc2, 0xff, 0xff, 0xff, 0x00, 0x00, 0x00, 0x01, 0x10, 0x00, 0x00, 0x00,
  0x10, 0x00, 0x00, 0x00, 0x03, 0x00, 0x00, 0x00, 0x1c, 0x00, 0x00, 0x00,
  0x48, 0xff, 0xff, 0xff, 0x0f, 0x00, 0x00, 0x00, 0x61, 0x72, 0x69, 0x74,
  0x68, 0x2e, 0x63, 0x6f, 0x6e, 0x73, 0x74, 0x61, 0x6e, 0x74, 0x31, 0x00,
  0x02, 0x00, 0x00, 0x00, 0x08, 0x00, 0x00, 0x00, 0x10, 0x00, 0x00, 0x00,
  0x00, 0x00, 0x16, 0x00, 0x18, 0x00, 0x14, 0x00, 0x00, 0x00, 0x10, 0x00,
  0x0c, 0x00, 0x08, 0x00, 0x00, 0x00, 0x00, 0x00, 0x00, 0x00, 0x07, 0x00,
  0x16, 0x00, 0x00, 0x00, 0x00, 0x00, 0x00, 0x01, 0x10, 0x00, 0x00, 0x00,
  0x10, 0x00, 0x00, 0x00, 0x02, 0x00, 0x00, 0x00, 0x1c, 0x00, 0x00, 0x00,
  0x9c, 0xff, 0xff, 0xff, 0x0e, 0x00, 0x00, 0x00, 0x61, 0x72, 0x69, 0x74,
  0x68, 0x2e, 0x63, 0x6f, 0x6e, 0x73, 0x74, 0x61, 0x6e, 0x74, 0x00, 0x00,
  0x02, 0x00, 0x00, 0x00, 0x01, 0x00, 0x00, 0x00, 0x08, 0x00, 0x00, 0x00,
  0x00, 0x00, 0x16, 0x00, 0x1c, 0x00, 0x18, 0x00, 0x00, 0x00, 0x14, 0x00,
  0x10, 0x00, 0x0c, 0x00, 0x00, 0x00, 0x00, 0x00, 0x08, 0x00, 0x07, 0x00,
  0x16, 0x00, 0x00, 0x00, 0x00, 0x00, 0x00, 0x01, 0x14, 0x00, 0x00, 0x00,
  0x20, 0x00, 0x00, 0x00, 0x20, 0x00, 0x00, 0x00, 0x01, 0x00, 0x00, 0x00,
  0x3c, 0x00, 0x00, 0x00, 0x02, 0x00, 0x00, 0x00, 0xff, 0xff, 0xff, 0xff,
  0x03, 0x00, 0x00, 0x00, 0x04, 0x00, 0x04, 0x00, 0x04, 0x00, 0x00, 0x00,
  0x1e, 0x00, 0x00, 0x00, 0x73, 0x65, 0x72, 0x76, 0x69, 0x6e, 0x67, 0x5f,
  0x64, 0x65, 0x66, 0x61, 0x75, 0x6c, 0x74, 0x5f, 0x6b, 0x65, 0x72, 0x61,
  0x73, 0x5f, 0x74, 0x65, 0x6e, 0x73, 0x6f, 0x72, 0x3a, 0x30, 0x00, 0x00,
  0x02, 0x00, 0x00, 0x00, 0x01, 0x00, 0x00, 0x00, 0x03, 0x00, 0x00, 0x00,
  0x01, 0x00, 0x00, 0x00, 0x10, 0x00, 0x00, 0x00, 0x0c, 0x00, 0x0c, 0x00,
  0x0b, 0x00, 0x00, 0x00, 0x00, 0x00, 0x04, 0x00, 0x0c, 0x00, 0x00, 0x00,
  0x09, 0x00, 0x00, 0x00, 0x00, 0x00, 0x00, 0x09
};

const int Primeiro_float32_len = 5432;
